
// We need to keep the data array aligned on some architectures.
#include "micro_model.h"

// memory management
#ifdef __has_attribute
#define HAVE_ATTRIBUTE(x) __has_attribute(x)
#else
#define HAVE_ATTRIBUTE(x) 0
#endif
#if HAVE_ATTRIBUTE(aligned) || (defined(__GNUC__) && !defined(__clang__))
#define DATA_ALIGN_ATTRIBUTE __attribute__((aligned(4)))
#else
#define DATA_ALIGN_ATTRIBUTE
#endif

const unsigned int micro_model_len = 9064;
const unsigned char micro_model[] DATA_ALIGN_ATTRIBUTE = {
  0x20, 0x00, 0x00, 0x00, 0x54, 0x46, 0x4c, 0x33, 0x00, 0x00, 0x00, 0x00,
  0x14, 0x00, 0x20, 0x00, 0x1c, 0x00, 0x18, 0x00, 0x14, 0x00, 0x10, 0x00,
  0x0c, 0x00, 0x00, 0x00, 0x08, 0x00, 0x04, 0x00, 0x14, 0x00, 0x00, 0x00,
  0x1c, 0x00, 0x00, 0x00, 0x80, 0x00, 0x00, 0x00, 0xd8, 0x00, 0x00, 0x00,
  0x9c, 0x16, 0x00, 0x00, 0xac, 0x16, 0x00, 0x00, 0x90, 0x22, 0x00, 0x00,
  0x03, 0x00, 0x00, 0x00, 0x01, 0x00, 0x00, 0x00, 0x04, 0x00, 0x00, 0x00,
  0x76, 0xe8, 0xff, 0xff, 0x0c, 0x00, 0x00, 0x00, 0x1c, 0x00, 0x00, 0x00,
  0x38, 0x00, 0x00, 0x00, 0x0f, 0x00, 0x00, 0x00, 0x73, 0x65, 0x72, 0x76,
  0x69, 0x6e, 0x67, 0x5f, 0x64, 0x65, 0x66, 0x61, 0x75, 0x6c, 0x74, 0x00,
  0x01, 0x00, 0x00, 0x00, 0x04, 0x00, 0x00, 0x00, 0x9c, 0xff, 0xff, 0xff,
  0x10, 0x00, 0x00, 0x00, 0x04, 0x00, 0x00, 0x00, 0x05, 0x00, 0x00, 0x00,
  0x64, 0x65, 0x6e, 0x73, 0x65, 0x00, 0x00, 0x00, 0x01, 0x00, 0x00, 0x00,
  0x04, 0x00, 0x00, 0x00, 0x16, 0xe9, 0xff, 0xff, 0x04, 0x00, 0x00, 0x00,
  0x07, 0x00, 0x00, 0x00, 0x69, 0x6e, 0x70, 0x75, 0x74, 0x5f, 0x31, 0x00,
  0x02, 0x00, 0x00, 0x00, 0x34, 0x00, 0x00, 0x00, 0x04, 0x00, 0x00, 0x00,
  0xdc, 0xff, 0xff, 0xff, 0x13, 0x00, 0x00, 0x00, 0x04, 0x00, 0x00, 0x00,
  0x13, 0x00, 0x00, 0x00, 0x43, 0x4f, 0x4e, 0x56, 0x45, 0x52, 0x53, 0x49,
  0x4f, 0x4e, 0x5f, 0x4d, 0x45, 0x54, 0x41, 0x44, 0x41, 0x54, 0x41, 0x00,
  0x08, 0x00, 0x0c, 0x00, 0x08, 0x00, 0x04, 0x00, 0x08, 0x00, 0x00, 0x00,
  0x12, 0x00, 0x00, 0x00, 0x04, 0x00, 0x00, 0x00, 0x13, 0x00, 0x00, 0x00,
  0x6d, 0x69, 0x6e, 0x5f, 0x72, 0x75, 0x6e, 0x74, 0x69, 0x6d, 0x65, 0x5f,
  0x76, 0x65, 0x72, 0x73, 0x69, 0x6f, 0x6e, 0x00, 0x14, 0x00, 0x00, 0x00,
  0xc0, 0x15, 0x00, 0x00, 0xb8, 0x15, 0x00, 0x00, 0xa0, 0x15, 0x00, 0x00,
  0x80, 0x15, 0x00, 0x00, 0xc0, 0x01, 0x00, 0x00, 0xa4, 0x01, 0x00, 0x00,
  0x28, 0x01, 0x00, 0x00, 0x08, 0x01, 0x00, 0x00, 0xd4, 0x00, 0x00, 0x00,
  0xcc, 0x00, 0x00, 0x00, 0xc4, 0x00, 0x00, 0x00, 0xbc, 0x00, 0x00, 0x00,
  0xb4, 0x00, 0x00, 0x00, 0xac, 0x00, 0x00, 0x00, 0xa4, 0x00, 0x00, 0x00,
  0x9c, 0x00, 0x00, 0x00, 0x94, 0x00, 0x00, 0x00, 0x8c, 0x00, 0x00, 0x00,
  0x6c, 0x00, 0x00, 0x00, 0x04, 0x00, 0x00, 0x00, 0xda, 0xe9, 0xff, 0xff,
  0x04, 0x00, 0x00, 0x00, 0x58, 0x00, 0x00, 0x00, 0x0c, 0x00, 0x00, 0x00,
  0x08, 0x00, 0x0e, 0x00, 0x08, 0x00, 0x04, 0x00, 0x08, 0x00, 0x00, 0x00,
  0x10, 0x00, 0x00, 0x00, 0x28, 0x00, 0x00, 0x00, 0x00, 0x00, 0x06, 0x00,
  0x08, 0x00, 0x04, 0x00, 0x06, 0x00, 0x00, 0x00, 0x04, 0x00, 0x00, 0x00,
  0x01, 0x00, 0x00, 0x00, 0xeb, 0x03, 0x00, 0x00, 0x00, 0x00, 0x0a, 0x00,
  0x10, 0x00, 0x0c, 0x00, 0x08, 0x00, 0x04, 0x00, 0x0a, 0x00, 0x00, 0x00,
  0x01, 0x00, 0x00, 0x00, 0x02, 0x00, 0x00, 0x00, 0x04, 0x00, 0x00, 0x00,
  0x06, 0x00, 0x00, 0x00, 0x32, 0x2e, 0x31, 0x32, 0x2e, 0x30, 0x00, 0x00,
  0x3e, 0xea, 0xff, 0xff, 0x04, 0x00, 0x00, 0x00, 0x10, 0x00, 0x00, 0x00,
  0x31, 0x2e, 0x31, 0x34, 0x2e, 0x30, 0x00, 0x00, 0x00, 0x00, 0x00, 0x00,
  0x00, 0x00, 0x00, 0x00, 0x4c, 0xdf, 0xff, 0xff, 0x50, 0xdf, 0xff, 0xff,
  0x54, 0xdf, 0xff, 0xff, 0x58, 0xdf, 0xff, 0xff, 0x5c, 0xdf, 0xff, 0xff,
  0x60, 0xdf, 0xff, 0xff, 0x64, 0xdf, 0xff, 0xff, 0x68, 0xdf, 0xff, 0xff,
  0x6c, 0xdf, 0xff, 0xff, 0x7e, 0xea, 0xff, 0xff, 0x04, 0x00, 0x00, 0x00,
  0x24, 0x00, 0x00, 0x00, 0xb7, 0x6a, 0x25, 0x44, 0xf3, 0xcc, 0x81, 0x78,
  0xc8, 0x88, 0x6f, 0x4a, 0xa7, 0x81, 0x58, 0xaa, 0x65, 0xeb, 0x7f, 0xdf,
  0x43, 0x59, 0x8a, 0x95, 0x5d, 0x37, 0xe7, 0x59, 0xd8, 0xd4, 0x47, 0x28,
  0x7f, 0x4f, 0xa7, 0xbe, 0xae, 0xea, 0xff, 0xff, 0x04, 0x00, 0x00, 0x00,
  0x10, 0x00, 0x00, 0x00, 0x01, 0x00, 0x00, 0x00, 0xfa, 0xff, 0xff, 0xff,
  0xfc, 0xff, 0xff, 0xff, 0xfe, 0xff, 0xff, 0xff, 0xca, 0xea, 0xff, 0xff,
  0x04, 0x00, 0x00, 0x00, 0x6c, 0x00, 0x00, 0x00, 0x01, 0xc3, 0xf7, 0x6e,
  0xf3, 0xc4, 0x27, 0xbd, 0x7e, 0xf2, 0xbb, 0x4f, 0x6b, 0x8c, 0xb9, 0xf0,
  0x30, 0xe5, 0x49, 0x8b, 0xaa, 0xfb, 0x77, 0xe0, 0x96, 0x7f, 0xf0, 0xe0,
  0x95, 0x36, 0xc4, 0xa9, 0xd7, 0x3b, 0xfd, 0x62, 0x9e, 0xb8, 0xfe, 0x03,
  0x0d, 0x90, 0x58, 0xe3, 0xd3, 0x47, 0xdc, 0xc7, 0xc3, 0xe6, 0xb4, 0x5b,
  0x43, 0xe1, 0x69, 0x59, 0x98, 0xe8, 0x74, 0x8a, 0xea, 0x1e, 0x11, 0xe7,
  0x3d, 0x52, 0xca, 0x7f, 0xd5, 0x9b, 0x51, 0x0d, 0x95, 0x87, 0x81, 0x98,
  0x1b, 0x1f, 0x89, 0xcc, 0xaa, 0x58, 0x06, 0xb1, 0x93, 0xa8, 0xfe, 0x6c,
  0xce, 0xbd, 0x61, 0xfb, 0xec, 0x67, 0x48, 0x60, 0xcc, 0xe8, 0xe0, 0x4a,
  0xe5, 0x4e, 0xc4, 0x58, 0x69, 0x91, 0x23, 0x5f, 0x42, 0xeb, 0xff, 0xff,
  0x04, 0x00, 0x00, 0x00, 0x0c, 0x00, 0x00, 0x00, 0x08, 0x00, 0x00, 0x00,
  0xf3, 0xff, 0xff, 0xff, 0x00, 0x00, 0x00, 0x00, 0x5a, 0xeb, 0xff, 0xff,
  0x04, 0x00, 0x00, 0x00, 0xb0, 0x13, 0x00, 0x00, 0xd6, 0x10, 0x55, 0xa7,
  0x23, 0xb1, 0x14, 0x06, 0x23, 0xd5, 0xc5, 0xd3, 0x96, 0x53, 0xf0, 0x13,
  0x3d, 0x65, 0x0e, 0x0a, 0x14, 0x25, 0xb3, 0xf3, 0x09, 0x33, 0xc0, 0x08,
  0x3e, 0x52, 0x4c, 0xb9, 0xab, 0xc1, 0xc6, 0xe3, 0xd0, 0xf3, 0x4c, 0x36,
  0xeb, 0x19, 0xbc, 0x06, 0x40, 0xbe, 0x35, 0xd2, 0xcb, 0x2f, 0xe1, 0xd0,
  0x3a, 0x06, 0xdd, 0xbd, 0x03, 0x15, 0xba, 0xbf, 0x32, 0xe5, 0x4f, 0xa9,
  0xd5, 0xfe, 0x0e, 0xc7, 0xc1, 0xb9, 0xf1, 0xe3, 0xfa, 0x14, 0x39, 0x1e,
  0x0d, 0xc6, 0xc9, 0xf2, 0xd6, 0x3e, 0x00, 0xc4, 0xf9, 0x0f, 0x25, 0xec,
  0xc7, 0xd6, 0x0c, 0x2a, 0x0f, 0xf5, 0x05, 0xee, 0xbd, 0x0d, 0x0c, 0x20,
  0xc7, 0xf2, 0xe8, 0xfa, 0x97, 0xfa, 0xff, 0x34, 0xd6, 0xd5, 0x11, 0xf4,
  0xbc, 0xdd, 0xed, 0xdb, 0xb6, 0xef, 0xf8, 0xfc, 0xda, 0xc8, 0xb4, 0x07,
  0xb9, 0x28, 0x2a, 0xec, 0xf6, 0x32, 0xd7, 0x34, 0x04, 0xd3, 0x2a, 0x02,
  0x00, 0x12, 0xe5, 0xfa, 0x24, 0x36, 0xaf, 0x34, 0x1e, 0xb9, 0xed, 0xf5,
  0x03, 0xae, 0x4d, 0x3d, 0x35, 0xb8, 0x3e, 0x81, 0xf1, 0xf8, 0x36, 0x40,
  0x31, 0x16, 0xe9, 0xb0, 0x16, 0x62, 0x4f, 0xe5, 0xd5, 0x4d, 0x06, 0xb9,
  0xcb, 0x5b, 0x1a, 0xd4, 0x04, 0x37, 0xef, 0x4b, 0x60, 0x3f, 0x6d, 0xdd,
  0x51, 0x59, 0xae, 0xe7, 0x1b, 0x1f, 0x54, 0x1b, 0x48, 0xfe, 0x02, 0xcf,
  0x4f, 0x3c, 0x17, 0x2f, 0x2c, 0xfb, 0x30, 0x2b, 0xd3, 0xe1, 0xe8, 0x10,
  0x47, 0xcd, 0x02, 0x55, 0x3f, 0x5c, 0x0a, 0x20, 0xe4, 0xba, 0xe1, 0xbb,
  0xe1, 0xcc, 0xba, 0x42, 0x6a, 0xfe, 0xdd, 0x64, 0x0d, 0x19, 0x50, 0x8c,
  0x1a, 0x1a, 0x13, 0x53, 0x60, 0xbf, 0xed, 0x33, 0xed, 0xda, 0xd1, 0xe5,
  0xfd, 0x57, 0x49, 0x3b, 0x18, 0xe8, 0x39, 0x27, 0x28, 0xb8, 0x24, 0x1e,
  0xf3, 0xf9, 0xd0, 0x20, 0x30, 0x41, 0xed, 0x2e, 0xfa, 0x47, 0xec, 0x5e,
  0x39, 0xe8, 0xd2, 0xe1, 0xe3, 0xe8, 0x4a, 0xca, 0x1d, 0x31, 0x4b, 0x0b,
  0xd4, 0xb5, 0xb9, 0x1b, 0x0d, 0xe5, 0xe9, 0x14, 0xba, 0x42, 0x22, 0xf2,
  0xd3, 0xbe, 0xfe, 0xe4, 0x2b, 0xe0, 0x02, 0xe8, 0x0e, 0x2e, 0xb6, 0x19,
  0xc5, 0xb7, 0x28, 0xc8, 0x0f, 0xce, 0xc3, 0x38, 0x11, 0xbd, 0xd1, 0x1d,
  0xae, 0xa4, 0x49, 0xea, 0xd5, 0x19, 0xae, 0xc7, 0xd4, 0xb8, 0xa3, 0x5e,
  0xd3, 0x36, 0xc3, 0xcc, 0x34, 0xf3, 0xf8, 0x1b, 0x06, 0x43, 0x46, 0x41,
  0x42, 0x50, 0xe2, 0xb1, 0x53, 0xcd, 0xcb, 0xe1, 0x1d, 0xf4, 0x5a, 0x0e,
  0x10, 0x34, 0x59, 0x00, 0xce, 0xa8, 0xf1, 0xf9, 0x47, 0x43, 0x2c, 0xd7,
  0x3e, 0x07, 0xc5, 0xd4, 0x10, 0x38, 0x18, 0xf5, 0xa8, 0x08, 0xfc, 0xcd,
  0xef, 0x3e, 0xd0, 0xca, 0xbb, 0xdc, 0x09, 0xcc, 0xa7, 0xb3, 0x56, 0xe3,
  0x2b, 0x21, 0x8e, 0xb2, 0x21, 0xf7, 0x50, 0x00, 0x00, 0x31, 0xee, 0xcf,
  0x3b, 0x13, 0xf6, 0xd0, 0xe7, 0xae, 0x1a, 0x5c, 0xeb, 0xb4, 0x38, 0x14,
  0xf1, 0x43, 0xa8, 0xbd, 0x01, 0x49, 0xfc, 0xbc, 0x1f, 0xb3, 0xc4, 0x5c,
  0x0a, 0x4e, 0x31, 0x2f, 0xb0, 0xd7, 0xfa, 0x56, 0xf1, 0x51, 0xf7, 0x33,
  0xbe, 0x28, 0x4b, 0x52, 0x1d, 0x14, 0x1d, 0xc5, 0xd0, 0xb1, 0xaf, 0xf8,
  0xb6, 0xee, 0xca, 0xf8, 0xa5, 0xe7, 0x40, 0xbd, 0x20, 0xfe, 0x13, 0xfe,
  0x08, 0xda, 0x12, 0x1b, 0x0d, 0xf8, 0x45, 0xc1, 0x45, 0x20, 0xc7, 0x08,
  0x4c, 0xe7, 0x3c, 0x03, 0xed, 0xfc, 0xf3, 0x22, 0x08, 0xf5, 0xf9, 0xbd,
  0xce, 0x48, 0x4b, 0xc5, 0x1f, 0xbf, 0xb2, 0xd7, 0x26, 0x10, 0x35, 0x95,
  0x21, 0xfa, 0x05, 0x09, 0xcd, 0x24, 0x05, 0x36, 0xc4, 0x0e, 0x0f, 0xd0,
  0xa9, 0x1d, 0xc2, 0x4c, 0x33, 0x1d, 0x15, 0xf8, 0x13, 0xc3, 0x12, 0x20,
  0x1a, 0xbd, 0xc0, 0xd4, 0x32, 0x4e, 0x00, 0xcf, 0x08, 0xe9, 0x33, 0x4e,
  0x06, 0xa6, 0x2d, 0x48, 0xb4, 0x1d, 0xee, 0x24, 0x1b, 0xfe, 0x09, 0xfa,
  0xcb, 0x23, 0xc2, 0x27, 0x0b, 0x11, 0x35, 0xbc, 0x01, 0x41, 0x1b, 0x35,
  0x17, 0x08, 0x3f, 0x2b, 0x17, 0x14, 0x28, 0xdd, 0xda, 0xe8, 0x3d, 0x2b,
  0xce, 0xba, 0xda, 0xc9, 0x31, 0xb7, 0x03, 0x58, 0x2c, 0x2b, 0xde, 0xf0,
  0xd5, 0xbb, 0xb2, 0xe0, 0x28, 0xbb, 0xdb, 0xac, 0x9c, 0xcf, 0x0a, 0x1b,
  0x22, 0xf1, 0x10, 0xfd, 0x37, 0xc8, 0x27, 0x53, 0xc6, 0x26, 0x37, 0xe8,
  0xf1, 0xd5, 0xf7, 0xb5, 0x43, 0xfa, 0xba, 0xfc, 0xe8, 0x27, 0xcb, 0x5c,
  0xca, 0x29, 0x0f, 0xf8, 0xf3, 0x38, 0x1e, 0x16, 0xdf, 0x4d, 0x1b, 0xf7,
  0x50, 0xb8, 0xd7, 0xdd, 0xef, 0x39, 0x00, 0x26, 0x5b, 0xac, 0xff, 0x11,
  0xc6, 0xe3, 0xfe, 0xa0, 0xeb, 0x0f, 0x19, 0xd5, 0xfc, 0xe9, 0xf4, 0x25,
  0xe4, 0x12, 0x4a, 0x04, 0x26, 0x49, 0x21, 0x31, 0x07, 0xd5, 0x44, 0x24,
  0x33, 0xa3, 0xdc, 0xef, 0x4a, 0xc7, 0xdb, 0xe1, 0xd8, 0xa6, 0x1d, 0x1b,
  0xb3, 0x31, 0xdb, 0x47, 0xef, 0x3a, 0x30, 0x2a, 0xf3, 0x08, 0x0f, 0xe9,
  0xc7, 0xcc, 0xfe, 0x27, 0x25, 0xd9, 0xbe, 0x30, 0xdf, 0xee, 0xec, 0x30,
  0x15, 0xc8, 0x0b, 0xf3, 0xcc, 0xf0, 0x4d, 0xd8, 0xd7, 0xae, 0x4b, 0x3b,
  0xf8, 0x31, 0x0c, 0xc6, 0x60, 0x3d, 0xc3, 0x2f, 0xc1, 0xbb, 0x39, 0x26,
  0x52, 0x55, 0xc7, 0xea, 0xbf, 0x39, 0x49, 0xd7, 0xa5, 0x3d, 0xcc, 0x22,
  0x47, 0x25, 0xef, 0xbc, 0xf4, 0x56, 0xdb, 0x01, 0x47, 0xfd, 0xb8, 0x41,
  0xd4, 0x5d, 0x43, 0xb1, 0x30, 0x1e, 0x34, 0xd0, 0xb1, 0xfa, 0xf9, 0xc6,
  0x27, 0x10, 0xcd, 0xcb, 0x0b, 0xfe, 0xf6, 0x3a, 0xa9, 0x30, 0x32, 0xc9,
  0x03, 0x32, 0xc8, 0x0b, 0x22, 0xd3, 0x40, 0x1d, 0xdf, 0xe2, 0xd4, 0x45,
  0xfe, 0xf5, 0x0a, 0x3f, 0x63, 0xa3, 0x3a, 0x25, 0x4c, 0xc9, 0xbe, 0x3b,
  0xb7, 0x2c, 0xc0, 0x0f, 0xfb, 0xf9, 0x0a, 0x52, 0xc8, 0xec, 0xb2, 0x00,
  0x5b, 0x05, 0x0f, 0x39, 0x4b, 0x2d, 0xc0, 0xf2, 0xc1, 0x36, 0xc7, 0xc7,
  0xd5, 0x2f, 0x02, 0x3e, 0x42, 0xed, 0xc2, 0x44, 0xed, 0xc8, 0xe3, 0x28,
  0x01, 0x36, 0x0d, 0xc8, 0xbb, 0xb2, 0xd8, 0x52, 0xd7, 0x34, 0xc6, 0x47,
  0x29, 0x00, 0x27, 0xeb, 0xdc, 0xe5, 0x1d, 0xde, 0xbd, 0xee, 0x3b, 0x31,
  0x1d, 0x58, 0xa9, 0x38, 0xbe, 0xa7, 0xec, 0xdb, 0xa7, 0x41, 0xe9, 0x0d,
  0x33, 0x12, 0x04, 0xfe, 0xf9, 0xfd, 0x48, 0x41, 0x20, 0x03, 0x0b, 0xf2,
  0xe5, 0x2d, 0xea, 0x2d, 0xb6, 0xc6, 0x13, 0xf0, 0x16, 0x53, 0xcf, 0xe6,
  0xdd, 0xcb, 0x67, 0xee, 0x1d, 0xca, 0x0f, 0x10, 0x07, 0x37, 0xfb, 0x03,
  0x51, 0xf5, 0xf5, 0x0e, 0x3d, 0x09, 0xf1, 0x34, 0x09, 0xbf, 0x44, 0xda,
  0xe0, 0xec, 0xf0, 0x4c, 0xb9, 0x27, 0x3f, 0x4a, 0x15, 0x20, 0x1f, 0xcb,
  0xd2, 0xfe, 0x3f, 0x01, 0xea, 0x49, 0x0e, 0xea, 0x52, 0x31, 0xbc, 0x12,
  0xba, 0x17, 0x12, 0xb8, 0xd4, 0x2c, 0xff, 0x45, 0x2c, 0x4a, 0x3c, 0x44,
  0xfa, 0xf0, 0xeb, 0x43, 0x19, 0x2e, 0x15, 0xc8, 0xe3, 0xea, 0xe8, 0x0b,
  0xef, 0x30, 0xc4, 0x1a, 0xf6, 0x3d, 0x36, 0x62, 0x3d, 0x68, 0x04, 0xd2,
  0x20, 0x48, 0x36, 0xea, 0xdb, 0xc3, 0x28, 0xfe, 0x1c, 0x2b, 0x16, 0xcf,
  0xf2, 0xf1, 0x3f, 0x1e, 0xda, 0x1f, 0x44, 0xd2, 0x29, 0x60, 0x3d, 0xc9,
  0x27, 0xea, 0xc5, 0xf4, 0xd3, 0x8f, 0x3c, 0xfb, 0xb6, 0x3d, 0x28, 0xce,
  0x08, 0x56, 0xf1, 0x04, 0xc1, 0x37, 0x52, 0x0c, 0x27, 0xdb, 0xdc, 0x4f,
  0xcd, 0x50, 0x14, 0x16, 0x1b, 0x20, 0xd0, 0x32, 0x24, 0x1b, 0xcc, 0x99,
  0x3e, 0x51, 0xd2, 0xae, 0x28, 0xdc, 0x45, 0x06, 0xc7, 0xcf, 0xdb, 0x0e,
  0xc4, 0xd6, 0xed, 0x04, 0x94, 0x5b, 0xdc, 0xbf, 0x12, 0xef, 0x8a, 0xfc,
  0xd1, 0x2b, 0x4a, 0x39, 0x2d, 0xff, 0xa4, 0xa1, 0xeb, 0xe5, 0x2b, 0x2d,
  0x1f, 0xe3, 0x2e, 0xc9, 0xd4, 0xaf, 0xbe, 0x0e, 0x45, 0xca, 0xd4, 0x53,
  0x1f, 0xb9, 0x0a, 0xe6, 0x8d, 0x15, 0xb1, 0x16, 0xdd, 0x0f, 0x03, 0x35,
  0xf7, 0x31, 0x30, 0x18, 0x3f, 0xfd, 0x1d, 0x2c, 0xfe, 0x4c, 0x25, 0x25,
  0x43, 0xcf, 0x4e, 0x13, 0x38, 0xda, 0x03, 0x4e, 0xb8, 0x10, 0x44, 0x07,
  0xff, 0xe5, 0xcd, 0xb0, 0x61, 0x04, 0xb8, 0x03, 0xc4, 0x24, 0x11, 0xbc,
  0x12, 0x35, 0xce, 0xd3, 0xcf, 0xf3, 0xc2, 0x31, 0x0a, 0xba, 0x55, 0x0e,
  0x3e, 0xfd, 0xbe, 0xfb, 0xac, 0x18, 0x15, 0x2a, 0xbe, 0x3c, 0x2c, 0xb6,
  0x55, 0x01, 0xcd, 0xc9, 0x1d, 0xc3, 0xd1, 0x15, 0x4b, 0x04, 0xee, 0x13,
  0xd7, 0xb8, 0x03, 0xf6, 0xce, 0xdb, 0x59, 0x3f, 0xd4, 0xc5, 0x11, 0x20,
  0x57, 0x3f, 0x2a, 0xb6, 0x3e, 0xc8, 0xc4, 0xfb, 0xf8, 0xf1, 0x3c, 0x17,
  0x53, 0x1f, 0x44, 0xc5, 0x03, 0xcf, 0x16, 0x2f, 0x32, 0x51, 0xc9, 0xab,
  0xbe, 0xc3, 0xb2, 0x15, 0x3f, 0x49, 0x4d, 0x5d, 0xc7, 0xca, 0x32, 0xbb,
  0x2c, 0x5c, 0x56, 0xd7, 0xe7, 0xfc, 0xf6, 0xbd, 0x4f, 0x1c, 0xee, 0x62,
  0xfc, 0x02, 0x0c, 0x18, 0xb2, 0xfb, 0xe6, 0xf0, 0x0e, 0xc7, 0x05, 0xfa,
  0x17, 0x92, 0xe8, 0xea, 0xb0, 0xaa, 0x44, 0x2d, 0xce, 0x3b, 0x05, 0x62,
  0x02, 0x0f, 0xaf, 0xe3, 0xa6, 0x11, 0xcf, 0x95, 0x9c, 0x11, 0xbd, 0xcf,
  0x10, 0x39, 0x0f, 0xe5, 0x41, 0xe7, 0xd9, 0x30, 0xaf, 0x50, 0x24, 0xb0,
  0xe7, 0x53, 0x0c, 0x16, 0xd1, 0xc6, 0xc8, 0xfa, 0x32, 0x35, 0x0e, 0xe6,
  0x51, 0x05, 0xc5, 0x41, 0x0f, 0x3d, 0xd7, 0xf2, 0xad, 0x15, 0x0c, 0xc7,
  0x32, 0x28, 0xcd, 0xdd, 0x48, 0xbf, 0xe6, 0xb4, 0xee, 0x36, 0xfa, 0x0b,
  0xf2, 0xb8, 0xe2, 0xaf, 0x3d, 0xe9, 0x37, 0xc8, 0xea, 0xca, 0x10, 0x54,
  0x45, 0xfd, 0x06, 0xae, 0x19, 0xcf, 0x0d, 0xe4, 0xd2, 0x4f, 0x44, 0xb3,
  0xaf, 0xb3, 0x0b, 0x03, 0x21, 0x46, 0xe1, 0xa4, 0x40, 0x3f, 0xf8, 0x05,
  0x41, 0xc3, 0x21, 0x04, 0xfc, 0x32, 0x4e, 0x08, 0x49, 0xdd, 0xb0, 0xbb,
  0xcf, 0x0c, 0x1b, 0x4f, 0x07, 0x33, 0x2d, 0x38, 0xab, 0xbc, 0x20, 0x3c,
  0x1e, 0x25, 0x0e, 0x16, 0xcf, 0x56, 0xe1, 0xd7, 0xbf, 0xb0, 0x03, 0xae,
  0x1e, 0x34, 0xa2, 0xcb, 0xc9, 0x29, 0x17, 0xcc, 0xa6, 0xaf, 0x33, 0x11,
  0x5a, 0xdc, 0x41, 0x12, 0xf2, 0xdf, 0x42, 0xbe, 0x1b, 0xff, 0x28, 0x39,
  0x2b, 0xd5, 0xc9, 0x37, 0x62, 0xb7, 0x53, 0x0b, 0xe5, 0xe6, 0x5c, 0xe9,
  0xdd, 0xfd, 0x4d, 0x25, 0x30, 0xeb, 0xf7, 0x2f, 0x30, 0x47, 0x1c, 0xca,
  0x57, 0x16, 0xbd, 0x40, 0xa3, 0x38, 0x2b, 0xe7, 0xc8, 0xf5, 0x05, 0xcc,
  0x1e, 0xd7, 0xc2, 0xd7, 0xce, 0xf1, 0xe8, 0xad, 0x57, 0xb1, 0xca, 0xa8,
  0x06, 0xf4, 0xd8, 0xcf, 0x3c, 0x5b, 0xf1, 0x16, 0x55, 0x46, 0x18, 0x43,
  0xe3, 0x29, 0x45, 0x2f, 0x1a, 0x1f, 0x0d, 0x2c, 0x0d, 0xd0, 0xfd, 0x06,
  0x27, 0x26, 0x12, 0xb7, 0x13, 0xbc, 0x0d, 0xee, 0xe9, 0x04, 0xd1, 0x3d,
  0x3d, 0x9a, 0x3c, 0xef, 0xe8, 0x20, 0xcc, 0xb3, 0x3e, 0x18, 0xac, 0x17,
  0xc5, 0xbd, 0x10, 0xb0, 0xfe, 0x20, 0xdc, 0x40, 0xf4, 0xb2, 0x1e, 0xde,
  0xd1, 0x0e, 0xb3, 0x03, 0x49, 0x3d, 0x2e, 0x4a, 0xc6, 0x49, 0x2f, 0x4a,
  0xb5, 0x58, 0xf3, 0xd2, 0x23, 0xe2, 0xf2, 0xee, 0xda, 0xf5, 0x24, 0xbd,
  0x21, 0xf5, 0xb3, 0x04, 0x2c, 0xc1, 0x1a, 0x45, 0xf3, 0xb3, 0x44, 0x10,
  0xa7, 0xf5, 0xce, 0xb3, 0xf7, 0x19, 0xda, 0x31, 0x16, 0x34, 0xb6, 0xe1,
  0x24, 0xdf, 0x27, 0x19, 0x01, 0x2a, 0xeb, 0x23, 0xc7, 0xfb, 0x29, 0x04,
  0xcb, 0x2a, 0x9f, 0x05, 0xea, 0xd7, 0xf6, 0xdd, 0xbb, 0xe9, 0x13, 0x30,
  0xf8, 0xf7, 0xf7, 0xd9, 0xce, 0xca, 0xd2, 0x28, 0xce, 0xdc, 0xd9, 0x36,
  0xf6, 0x1c, 0x2a, 0xac, 0x40, 0xcb, 0x4b, 0x42, 0xec, 0xf0, 0xcb, 0xb5,
  0xdc, 0xf0, 0x21, 0xc3, 0xb8, 0x26, 0x57, 0xb7, 0x15, 0xdf, 0xc1, 0xfd,
  0x2d, 0xe5, 0x22, 0x30, 0xfa, 0x1a, 0xea, 0x46, 0xd5, 0x47, 0x16, 0xc3,
  0x0d, 0xc3, 0xe2, 0x30, 0x46, 0xad, 0xcc, 0xb1, 0xd6, 0x22, 0x3f, 0xbf,
  0x16, 0x1b, 0x32, 0xbd, 0xf8, 0xb5, 0x54, 0xa3, 0x1b, 0x1d, 0xf9, 0xe5,
  0x48, 0xf9, 0x23, 0xb4, 0xee, 0xbb, 0xfd, 0xa1, 0x22, 0xb7, 0xa8, 0xf5,
  0x35, 0xbf, 0xb4, 0x3c, 0x97, 0xfb, 0xdc, 0x22, 0x26, 0x43, 0xfd, 0xf0,
  0xfa, 0xfc, 0x08, 0xda, 0x09, 0x0d, 0xd3, 0x26, 0x00, 0xed, 0x1e, 0xe8,
  0xfe, 0xed, 0xc0, 0x24, 0xce, 0xd3, 0xac, 0x1b, 0x20, 0xff, 0x30, 0x48,
  0x43, 0x4c, 0xd9, 0xe3, 0xd1, 0xe7, 0xf9, 0xc4, 0x3c, 0x53, 0x3a, 0x33,
  0xf8, 0xfb, 0x29, 0xef, 0x47, 0xca, 0xf6, 0x08, 0x21, 0x14, 0xea, 0x47,
  0x15, 0x3b, 0xd1, 0xe3, 0xe6, 0x25, 0x1f, 0x32, 0xe9, 0x48, 0xc6, 0x21,
  0x22, 0xe4, 0x0f, 0x42, 0x3a, 0xd2, 0x51, 0xf2, 0xae, 0x14, 0x12, 0x36,
  0xfa, 0xbb, 0x05, 0x47, 0xbf, 0xc9, 0x2a, 0xc4, 0xcb, 0xef, 0x26, 0xd9,
  0xcb, 0x13, 0xf9, 0xa9, 0xb6, 0xbc, 0x45, 0xc4, 0xdf, 0x0e, 0x37, 0x50,
  0x02, 0x35, 0x00, 0xc5, 0x9e, 0xae, 0xeb, 0xa5, 0xee, 0xce, 0x50, 0xb5,
  0xb9, 0xe6, 0x39, 0xe6, 0x3f, 0xc7, 0xd1, 0xf9, 0xfe, 0xdc, 0xcd, 0xd2,
  0xc9, 0xc3, 0xcc, 0xc6, 0x60, 0xc2, 0x3e, 0x25, 0xcf, 0x1e, 0x00, 0x09,
  0x22, 0xc2, 0x40, 0xe2, 0xc1, 0xce, 0xbe, 0xd7, 0x0a, 0xfb, 0x12, 0xe4,
  0x02, 0x4a, 0xc9, 0xc2, 0xf2, 0x45, 0x18, 0x2e, 0xb6, 0x4b, 0xd1, 0x39,
  0xf2, 0xe4, 0xba, 0xf0, 0xee, 0x35, 0xfd, 0xfd, 0x27, 0x28, 0xda, 0xda,
  0x0d, 0x34, 0x4c, 0x3b, 0xb8, 0x06, 0xda, 0x47, 0x21, 0x35, 0xe0, 0x57,
  0x31, 0xdd, 0xb5, 0xcf, 0xa7, 0x2c, 0xed, 0x03, 0xdb, 0xcd, 0xfb, 0x0e,
  0xf2, 0x02, 0xb5, 0x29, 0xbe, 0x02, 0x2a, 0xe5, 0xde, 0xe0, 0x32, 0xc3,
  0xe8, 0x1e, 0x25, 0x53, 0xd0, 0xbd, 0x03, 0x2b, 0x35, 0xf5, 0x38, 0xae,
  0x3b, 0x03, 0x2f, 0xb5, 0x29, 0x3b, 0xe0, 0xec, 0xc0, 0xd9, 0x2b, 0xf4,
  0xae, 0xd3, 0x18, 0x44, 0x2e, 0x00, 0xb9, 0x42, 0xdb, 0xbc, 0x3e, 0x13,
  0xce, 0x0f, 0xf1, 0x0c, 0xf9, 0x42, 0xc0, 0x19, 0x4f, 0x00, 0xfa, 0x32,
  0x2a, 0xf0, 0xd6, 0xd4, 0x2e, 0xf5, 0xe0, 0xee, 0xd0, 0x3e, 0xcd, 0xcf,
  0xd3, 0xd2, 0x9c, 0x3d, 0xa6, 0xe9, 0x44, 0x06, 0xfd, 0xc3, 0xdb, 0xaa,
  0xc8, 0x06, 0x46, 0xf0, 0xe9, 0x33, 0xad, 0xb6, 0x2c, 0xac, 0x3e, 0x44,
  0xd2, 0xdd, 0x27, 0xf1, 0xc2, 0xc6, 0x10, 0x05, 0x00, 0x12, 0x4a, 0xf2,
  0xfc, 0x16, 0xd1, 0xee, 0x17, 0xd7, 0xcc, 0x59, 0x39, 0xd5, 0x39, 0x05,
  0xd1, 0xd2, 0xb9, 0xbc, 0x32, 0x3f, 0xe3, 0x0e, 0x09, 0x49, 0xb7, 0xaa,
  0x41, 0xec, 0x1d, 0x3c, 0xd9, 0x6a, 0xb3, 0xac, 0xb5, 0xf7, 0x07, 0xac,
  0x32, 0x45, 0xc4, 0xe1, 0x3d, 0xe6, 0xa8, 0x38, 0x3e, 0xb1, 0x28, 0x39,
  0xe9, 0xf5, 0x03, 0x1c, 0x12, 0xe7, 0xc3, 0xed, 0xcf, 0xfb, 0x03, 0x27,
  0x28, 0x12, 0xed, 0xd1, 0xcb, 0x4d, 0x24, 0xf0, 0x02, 0x3a, 0xcb, 0xe9,
  0xee, 0xc1, 0xec, 0xd7, 0x49, 0x47, 0xda, 0x2a, 0xac, 0xe9, 0x39, 0xdd,
  0xca, 0xcd, 0xcd, 0x48, 0x2d, 0xde, 0xbe, 0x26, 0x43, 0xf2, 0x00, 0xa0,
  0xa9, 0xa9, 0x13, 0xe2, 0xcb, 0x11, 0xfd, 0x30, 0xc3, 0xd2, 0x25, 0xe0,
  0xab, 0xf1, 0x20, 0xa9, 0x00, 0x50, 0xe4, 0xbe, 0xcf, 0x0a, 0x63, 0x16,
  0xe6, 0xe3, 0xcc, 0xca, 0x14, 0xea, 0x18, 0x22, 0x1c, 0xe1, 0x1a, 0x21,
  0x47, 0x4b, 0x03, 0xe0, 0x21, 0x35, 0xf5, 0xf0, 0x3c, 0xe2, 0xf6, 0x26,
  0xe5, 0x10, 0xfa, 0x4e, 0xed, 0x06, 0x4c, 0xf4, 0xa8, 0x55, 0x27, 0xa8,
  0x3c, 0x3b, 0x9d, 0xdf, 0x13, 0xc9, 0x46, 0xe7, 0xfb, 0x1a, 0x38, 0x0e,
  0x4c, 0xd6, 0xcb, 0xe5, 0xf4, 0xfa, 0xeb, 0x29, 0x03, 0xd2, 0xd2, 0x02,
  0xd7, 0xb9, 0x06, 0x02, 0xb9, 0xeb, 0xed, 0xeb, 0x39, 0xc8, 0xe3, 0xf3,
  0x53, 0x0e, 0x34, 0xcb, 0xc6, 0xde, 0x12, 0x36, 0x33, 0x59, 0xc3, 0x2d,
  0x2b, 0xfd, 0x32, 0xee, 0x28, 0xea, 0x38, 0x1e, 0xf2, 0x07, 0x07, 0xf3,
  0x32, 0x3e, 0xe5, 0xc8, 0x0f, 0x08, 0x1e, 0x03, 0x38, 0x11, 0xb6, 0x2f,
  0x37, 0x46, 0xe1, 0x08, 0x1a, 0xae, 0xe2, 0x47, 0x15, 0x16, 0x1e, 0x25,
  0x4b, 0x53, 0x47, 0xb2, 0x26, 0x06, 0x4d, 0x25, 0xad, 0x28, 0xbc, 0x1a,
  0x4e, 0x15, 0x57, 0xe0, 0xbb, 0xcf, 0x0c, 0x24, 0xb6, 0xb4, 0x09, 0xc5,
  0xfe, 0xfc, 0x5a, 0xde, 0xcc, 0x2b, 0xff, 0xd6, 0x37, 0xb8, 0x15, 0x1c,
  0x41, 0x3d, 0x23, 0x32, 0x21, 0x56, 0x3d, 0x95, 0xed, 0x4e, 0xfb, 0xd9,
  0x43, 0x3e, 0xcb, 0x41, 0xa4, 0xd0, 0x0f, 0x37, 0x40, 0x4f, 0x25, 0xda,
  0xbd, 0x24, 0x39, 0xfd, 0x02, 0x29, 0xd0, 0x02, 0xb5, 0x3d, 0x39, 0x2c,
  0x06, 0x45, 0xc5, 0x09, 0x33, 0x18, 0xea, 0xff, 0x1d, 0xac, 0xda, 0x50,
  0x0c, 0xdd, 0xd9, 0x3b, 0xe3, 0xde, 0x20, 0xf4, 0x02, 0xd6, 0xc6, 0x51,
  0x23, 0xf5, 0x08, 0x4f, 0x1b, 0x29, 0x06, 0xfb, 0xaa, 0x3e, 0xed, 0xf4,
  0x10, 0x23, 0xeb, 0xb2, 0x4c, 0x34, 0xf6, 0xf5, 0x12, 0x39, 0x41, 0xe9,
  0x10, 0x28, 0x1f, 0xd0, 0x58, 0x26, 0xfe, 0x05, 0xc4, 0x4f, 0x18, 0x03,
  0xdd, 0x3b, 0x29, 0xca, 0x20, 0xed, 0xd4, 0xbc, 0xf5, 0x04, 0x54, 0x28,
  0xec, 0xd9, 0xe6, 0x44, 0x04, 0x1d, 0xb2, 0x37, 0x34, 0x36, 0x3b, 0x03,
  0x22, 0xf3, 0x10, 0xef, 0x39, 0x29, 0x5a, 0xb2, 0x44, 0xf6, 0xc2, 0xa2,
  0x43, 0x47, 0x41, 0x25, 0xbb, 0xac, 0x06, 0x38, 0xc4, 0x41, 0x4d, 0xa9,
  0x1e, 0x46, 0xfd, 0xe4, 0xdf, 0xd1, 0x32, 0x2d, 0x56, 0x4a, 0x16, 0xf4,
  0xfb, 0x48, 0xae, 0x45, 0x1c, 0xf3, 0x2b, 0x34, 0x41, 0xb3, 0xbf, 0xe1,
  0x1f, 0xd0, 0x24, 0x4e, 0xc0, 0x0b, 0x55, 0xd8, 0x99, 0x42, 0x31, 0x1d,
  0xfc, 0xc7, 0xce, 0xee, 0xf5, 0x39, 0x0a, 0x1e, 0xe3, 0xf3, 0xf9, 0xf0,
  0xb1, 0x1e, 0xaf, 0x0b, 0xcf, 0xa1, 0x2a, 0x51, 0x3c, 0x06, 0xc0, 0x38,
  0xb1, 0xd3, 0xff, 0x45, 0xf8, 0xcc, 0xae, 0xc6, 0xb4, 0x02, 0xe6, 0x32,
  0xab, 0xf6, 0x14, 0x10, 0x0a, 0xa3, 0xd6, 0x51, 0x35, 0xbe, 0x43, 0x94,
  0xbc, 0x6c, 0x16, 0x4e, 0x0a, 0x4a, 0x11, 0x4e, 0xde, 0xed, 0x60, 0x10,
  0x59, 0xe9, 0xc8, 0xfb, 0xc8, 0x3b, 0x14, 0x6b, 0xef, 0xde, 0x42, 0xf3,
  0xec, 0x10, 0xfb, 0xbf, 0x2d, 0x1a, 0xb5, 0x16, 0xc0, 0xe1, 0x3c, 0xc0,
  0x4b, 0x2f, 0xfd, 0xdc, 0xba, 0xfa, 0xb2, 0x51, 0x12, 0x38, 0xbf, 0x49,
  0x52, 0xf0, 0xf5, 0x50, 0xee, 0xfa, 0x13, 0x02, 0x48, 0xb0, 0xf4, 0x22,
  0x2d, 0xee, 0x3c, 0x26, 0x4d, 0xd4, 0x01, 0xcf, 0x47, 0x35, 0x18, 0x30,
  0xd4, 0x49, 0x1a, 0xda, 0xfa, 0x01, 0xb4, 0xfe, 0x01, 0x50, 0x35, 0x09,
  0xf4, 0xfb, 0xbd, 0xbe, 0x34, 0x38, 0xd6, 0x37, 0x16, 0x3f, 0xdc, 0x31,
  0xea, 0xe8, 0xaa, 0xd7, 0x45, 0x33, 0x56, 0x4b, 0x0e, 0xbf, 0xc1, 0x55,
  0x4a, 0xd9, 0x57, 0xca, 0xc6, 0xb7, 0x28, 0xfa, 0xdf, 0xf2, 0x3c, 0xea,
  0x3c, 0xe9, 0x33, 0x17, 0x55, 0x46, 0x13, 0x3c, 0x1f, 0x56, 0x24, 0x30,
  0x04, 0x47, 0x06, 0x1c, 0x32, 0xbd, 0x44, 0xcb, 0x03, 0x06, 0xf3, 0xf0,
  0x52, 0x57, 0x60, 0x5b, 0x3a, 0x32, 0x2b, 0x15, 0xf3, 0xb3, 0xfe, 0xa7,
  0xae, 0x5d, 0xbd, 0xd2, 0x25, 0x0a, 0xee, 0xeb, 0xd7, 0x0d, 0x50, 0xa5,
  0xeb, 0xd2, 0xbc, 0xd5, 0xb7, 0xfc, 0x32, 0x08, 0x36, 0xfc, 0xbf, 0xd3,
  0xef, 0xea, 0xda, 0x0a, 0xd5, 0xda, 0x51, 0xda, 0xa8, 0x18, 0xe4, 0x2b,
  0x20, 0xaa, 0xf6, 0xac, 0x16, 0xed, 0xb5, 0xf6, 0xe9, 0xe3, 0x48, 0x46,
  0xd6, 0x25, 0x4f, 0xfc, 0xce, 0x00, 0x12, 0x3c, 0x1a, 0x20, 0xd9, 0xc6,
  0x0f, 0xbc, 0xdd, 0xb5, 0x04, 0x00, 0xd5, 0x15, 0x0f, 0x1c, 0xa5, 0x47,
  0xce, 0xca, 0x40, 0x17, 0xf0, 0x26, 0xe4, 0x2a, 0xc7, 0xb8, 0x4a, 0xe7,
  0x0c, 0x20, 0x0f, 0xef, 0x3f, 0xd8, 0x14, 0xe3, 0x00, 0xf7, 0xc5, 0x5d,
  0xf6, 0x34, 0x50, 0xdf, 0x32, 0xd4, 0x4b, 0xc4, 0xcf, 0x10, 0x15, 0xff,
  0x1d, 0x03, 0xb1, 0x07, 0xbe, 0x21, 0x4b, 0xe0, 0xea, 0x1b, 0xf0, 0x1c,
  0x33, 0xb4, 0x1d, 0xd9, 0x35, 0xf3, 0xee, 0x1b, 0x44, 0xbb, 0xb4, 0x1b,
  0xbb, 0xfd, 0xe5, 0x40, 0xfa, 0xe8, 0xe6, 0xd4, 0xdb, 0xde, 0xb2, 0x33,
  0x3d, 0xc1, 0xce, 0xac, 0xf5, 0x64, 0x39, 0xe6, 0x21, 0x18, 0xb6, 0x11,
  0xa4, 0x2e, 0x1d, 0xd8, 0x13, 0xc3, 0xa4, 0x23, 0x6f, 0xd7, 0xa2, 0x0d,
  0xf5, 0x1a, 0xdc, 0x3d, 0xc2, 0xe4, 0xef, 0xb8, 0xb2, 0xf4, 0xe1, 0x20,
  0xde, 0xb3, 0xcd, 0xe0, 0x25, 0xb3, 0xd3, 0xe4, 0xea, 0xe0, 0xee, 0xfc,
  0xc6, 0xcb, 0x1b, 0xd2, 0xc5, 0x31, 0x23, 0xd2, 0x44, 0xb9, 0xe5, 0x58,
  0x40, 0x32, 0x33, 0x16, 0xc8, 0xdc, 0x1d, 0x04, 0xa6, 0x24, 0xcc, 0x00,
  0xd4, 0x49, 0xb6, 0xb6, 0x35, 0x36, 0xce, 0xd0, 0xbf, 0xd7, 0xc1, 0x1a,
  0x13, 0xa5, 0xa9, 0xb7, 0x34, 0x63, 0x01, 0xeb, 0xd1, 0xae, 0x47, 0x4a,
  0xab, 0x1a, 0xf1, 0x2d, 0xd6, 0xdf, 0x2d, 0xb2, 0xb8, 0x46, 0x16, 0x0a,
  0x9b, 0xdd, 0xb4, 0x07, 0x27, 0x44, 0x2c, 0x57, 0x27, 0x1f, 0x36, 0xad,
  0x38, 0xed, 0xdb, 0xaf, 0x44, 0xf6, 0x21, 0x5d, 0x1a, 0xbd, 0xed, 0x42,
  0xd3, 0x5e, 0xda, 0xfd, 0xe7, 0xf7, 0xd6, 0x1d, 0xc8, 0xd1, 0x4d, 0xfc,
  0xdb, 0x14, 0xc9, 0x00, 0xea, 0xeb, 0x3a, 0xc5, 0xd3, 0x4a, 0xc0, 0x10,
  0x3e, 0xd9, 0x02, 0x17, 0x5a, 0x98, 0x55, 0x28, 0x32, 0xdd, 0xe2, 0x1b,
  0x16, 0xea, 0xfd, 0x53, 0x28, 0x4e, 0x15, 0xc1, 0x15, 0x54, 0x21, 0x3c,
  0xf5, 0x12, 0xbe, 0xf7, 0x4b, 0x3c, 0x41, 0x47, 0x26, 0x2e, 0xc5, 0x41,
  0x2d, 0xf6, 0x37, 0xfb, 0xf5, 0x24, 0xcc, 0xe6, 0xf5, 0x3a, 0x9e, 0x0a,
  0xc9, 0x4b, 0xd4, 0x34, 0x9e, 0x62, 0x32, 0xf9, 0xfc, 0x2b, 0xfb, 0x51,
  0xcd, 0xcc, 0x34, 0xa8, 0xf9, 0x19, 0xe2, 0xb4, 0xf6, 0xb5, 0xd2, 0xd2,
  0x24, 0xbd, 0x52, 0xd7, 0x38, 0xf5, 0xc2, 0xf6, 0x37, 0x3c, 0x1a, 0x46,
  0xe0, 0xe0, 0x09, 0xb1, 0x55, 0xdb, 0x4a, 0xe3, 0x51, 0xf5, 0x38, 0xb6,
  0xf3, 0xba, 0x05, 0x07, 0xc4, 0xcf, 0x45, 0x41, 0xa5, 0x34, 0xfa, 0xaf,
  0xf9, 0xe9, 0x31, 0x54, 0xaf, 0xc2, 0x06, 0xe4, 0xb2, 0x50, 0x24, 0xb9,
  0xbb, 0xff, 0xda, 0xe7, 0x1c, 0x4b, 0xed, 0x16, 0x15, 0xe3, 0xfe, 0xda,
  0xc7, 0x2e, 0x5d, 0x46, 0x99, 0x63, 0xe4, 0x1c, 0xda, 0x11, 0x9d, 0x78,
  0xc4, 0x18, 0xc5, 0xe1, 0xdf, 0xc5, 0x44, 0x32, 0x27, 0xe6, 0xd7, 0xc6,
  0xe3, 0xbb, 0x07, 0x14, 0x21, 0x51, 0xd0, 0x0d, 0x3d, 0x03, 0xc1, 0x43,
  0xca, 0x3a, 0x57, 0x09, 0xdf, 0x22, 0x36, 0x1e, 0x59, 0xd2, 0xb5, 0xe1,
  0x41, 0x1a, 0xc3, 0x14, 0x2c, 0xfd, 0xc2, 0x0b, 0xfd, 0x10, 0xea, 0xff,
  0x09, 0xca, 0x0b, 0x3f, 0xbe, 0x16, 0x01, 0x1d, 0x18, 0xc3, 0xb7, 0xeb,
  0x1f, 0xc7, 0x4e, 0xda, 0xd0, 0x00, 0x36, 0xbe, 0x3d, 0xef, 0xd6, 0xdf,
  0x3e, 0x24, 0x16, 0x05, 0x0c, 0x25, 0x27, 0xf9, 0xd3, 0x1f, 0x4a, 0x53,
  0xf5, 0xf3, 0xd8, 0xf8, 0x3e, 0x32, 0xd4, 0x06, 0x2a, 0x1f, 0x1c, 0x41,
  0xb5, 0xd3, 0x2f, 0xe3, 0xf7, 0xb1, 0xb0, 0xf2, 0xeb, 0x24, 0x45, 0x1f,
  0x42, 0x3f, 0xdb, 0x04, 0x28, 0xfa, 0x42, 0x2b, 0xea, 0x1e, 0x40, 0xe7,
  0xe7, 0x38, 0x2c, 0xfe, 0xe5, 0x18, 0x3e, 0xdb, 0xd5, 0xc5, 0x10, 0xd9,
  0xb9, 0x01, 0xce, 0x43, 0xbb, 0xd9, 0x48, 0x15, 0x70, 0xc5, 0xf2, 0x32,
  0xd7, 0xf5, 0xda, 0xdc, 0x46, 0x3b, 0xf9, 0x08, 0x9b, 0xa7, 0xe7, 0xdd,
  0x09, 0xc2, 0x26, 0xf0, 0x3d, 0x21, 0xcd, 0x09, 0xd2, 0xfc, 0x3a, 0x45,
  0x50, 0x08, 0x0f, 0xd4, 0x21, 0xaf, 0x44, 0x03, 0xf7, 0x43, 0x16, 0xa7,
  0x4b, 0x09, 0xc1, 0xfa, 0xe2, 0xc2, 0xdf, 0x26, 0x08, 0xdd, 0xed, 0xf1,
  0xd7, 0xaf, 0x0f, 0x4d, 0xed, 0x13, 0x2a, 0xcc, 0xd1, 0x3f, 0x42, 0x12,
  0x3e, 0xd6, 0x30, 0x41, 0xd9, 0xb1, 0xc7, 0x45, 0xb9, 0x4b, 0x48, 0x2c,
  0x49, 0x4d, 0xf5, 0xd7, 0x2a, 0xdd, 0xce, 0xe3, 0x25, 0xd4, 0xef, 0xc9,
  0x16, 0x2c, 0x05, 0x14, 0xde, 0xe2, 0xe9, 0x4b, 0xfa, 0xd9, 0x4c, 0x9e,
  0xb3, 0x05, 0xc0, 0x08, 0x14, 0x3e, 0xd1, 0x20, 0xdb, 0x4e, 0xcd, 0xe3,
  0x11, 0xe4, 0xd4, 0x4d, 0xce, 0xf1, 0xc8, 0xe8, 0x47, 0x34, 0x0e, 0x9e,
  0x00, 0xce, 0x07, 0x07, 0xe4, 0xb7, 0x51, 0x21, 0x02, 0xad, 0x27, 0x3c,
  0xe7, 0xd7, 0x4f, 0xe9, 0xaf, 0xc3, 0xbc, 0x12, 0xe2, 0xe8, 0xdb, 0x02,
  0xb8, 0x85, 0x37, 0xbb, 0xf7, 0x2a, 0x3d, 0x13, 0x0f, 0xbf, 0xbe, 0x0a,
  0x0f, 0x27, 0xe1, 0xac, 0xea, 0xff, 0x2f, 0xe8, 0xbd, 0x37, 0x97, 0x39,
  0x4b, 0x21, 0x8e, 0xe5, 0xb8, 0xa8, 0xcb, 0xcc, 0xef, 0xae, 0x0d, 0xe5,
  0x12, 0x51, 0x54, 0x16, 0x44, 0x9c, 0xee, 0x30, 0xe7, 0xd5, 0xe5, 0x1e,
  0x1e, 0xfc, 0xf7, 0x05, 0x1f, 0x3c, 0x44, 0xa6, 0xf4, 0x07, 0xd2, 0x42,
  0xa6, 0x4a, 0xea, 0xf7, 0xcd, 0xbd, 0xc4, 0x3e, 0xbf, 0x08, 0xcf, 0xca,
  0x08, 0xfa, 0x30, 0xcf, 0xc1, 0x38, 0x1f, 0xeb, 0x0b, 0xe2, 0x27, 0x60,
  0xbb, 0x47, 0xfd, 0x17, 0xdf, 0xdd, 0xee, 0xae, 0x2e, 0xb3, 0x35, 0xb8,
  0x05, 0x13, 0xd3, 0xa5, 0xac, 0x0c, 0xe1, 0xb7, 0x3c, 0x3b, 0xd1, 0x37,
  0x19, 0x21, 0xf8, 0xe6, 0x09, 0xf2, 0x51, 0x38, 0xc7, 0xeb, 0xc9, 0xb6,
  0xfb, 0x0e, 0xe0, 0xe3, 0xfb, 0xe7, 0xfa, 0x00, 0x07, 0x24, 0x6f, 0xf3,
  0x11, 0x06, 0x04, 0x34, 0x10, 0x21, 0xc3, 0xcf, 0xe6, 0xe5, 0xde, 0xa8,
  0xf3, 0x38, 0xb8, 0xa3, 0xfc, 0x17, 0x20, 0x59, 0x0c, 0xe4, 0xc0, 0x30,
  0x18, 0xe2, 0x3a, 0xd8, 0xc6, 0xad, 0x3f, 0x25, 0xed, 0x4c, 0xc2, 0x19,
  0xd8, 0xba, 0x19, 0xd9, 0x09, 0x36, 0xb6, 0x0d, 0x1a, 0xe3, 0x43, 0xbf,
  0xd3, 0xdb, 0x12, 0xdd, 0x3c, 0xf8, 0x47, 0x29, 0xf8, 0xf2, 0xbe, 0x02,
  0xbc, 0x42, 0xa8, 0xcd, 0x43, 0xe1, 0xcd, 0x14, 0x01, 0xb4, 0x39, 0x13,
  0xae, 0xcf, 0x3f, 0x48, 0xc2, 0x3d, 0x4c, 0xbd, 0x0f, 0xbf, 0x19, 0x2a,
  0x48, 0x14, 0x04, 0xb0, 0x08, 0x1c, 0x28, 0xc5, 0x1b, 0x46, 0xbe, 0xa9,
  0x49, 0xd7, 0x47, 0x0e, 0xcd, 0xc4, 0x36, 0x11, 0x22, 0x25, 0x53, 0xb6,
  0x10, 0xf9, 0xc3, 0xd0, 0xc0, 0x39, 0x12, 0xf4, 0xf9, 0x28, 0x21, 0x19,
  0x13, 0x30, 0x3a, 0xe3, 0xc5, 0x9c, 0xc4, 0xdd, 0xb7, 0xbb, 0xea, 0x13,
  0x42, 0x07, 0x2c, 0x14, 0xbd, 0xcf, 0x44, 0xb6, 0xf6, 0x0c, 0x1c, 0xc8,
  0x3e, 0xf4, 0x36, 0x07, 0xac, 0x03, 0xeb, 0xbd, 0x06, 0xd8, 0xd4, 0xea,
  0x33, 0x55, 0xf6, 0xf1, 0x35, 0x09, 0x2b, 0x56, 0x1d, 0xaf, 0xf1, 0x4d,
  0x14, 0xf0, 0x60, 0xb6, 0xbe, 0x17, 0xd6, 0xf8, 0x2a, 0x42, 0x2c, 0x18,
  0x14, 0x43, 0x40, 0x0d, 0x48, 0xe1, 0x1b, 0xdf, 0x26, 0x25, 0xb0, 0x32,
  0x2d, 0x21, 0x97, 0xd6, 0x12, 0x36, 0x4a, 0xc8, 0xd7, 0x51, 0xb2, 0xcd,
  0x2e, 0x2b, 0xfa, 0xcc, 0xaa, 0xdd, 0x53, 0xf7, 0xec, 0x2a, 0xff, 0x06,
  0xd5, 0xdc, 0xd5, 0x52, 0x1a, 0xf6, 0xe6, 0x39, 0xd6, 0xd5, 0x2d, 0x0c,
  0x50, 0xe5, 0x0e, 0xce, 0xa9, 0x4e, 0x50, 0xfd, 0xec, 0x2a, 0xe4, 0xe8,
  0x3c, 0xc2, 0xff, 0x4a, 0xf4, 0xd4, 0xdc, 0xd5, 0x56, 0x40, 0xc2, 0x5d,
  0xd3, 0x37, 0x56, 0xb5, 0x1b, 0x3f, 0xdd, 0xeb, 0x3a, 0x30, 0x90, 0x40,
  0xd6, 0xb9, 0x1c, 0x49, 0xf3, 0xda, 0xe0, 0x9f, 0x06, 0x2f, 0x17, 0xaa,
  0xaa, 0x21, 0xb4, 0x0a, 0xf5, 0x2b, 0x43, 0x23, 0x06, 0xc2, 0xbf, 0x56,
  0x43, 0x0b, 0x21, 0xd2, 0xe5, 0x2f, 0xb2, 0xa3, 0xcc, 0x16, 0x8e, 0x5f,
  0x41, 0xe8, 0x29, 0x0d, 0xfe, 0xb8, 0x16, 0xc5, 0x00, 0x20, 0x30, 0xe6,
  0xc1, 0xf2, 0x2c, 0xc5, 0xdf, 0x08, 0x41, 0xc7, 0x2a, 0xda, 0xb5, 0xb8,
  0x18, 0x25, 0xcd, 0xeb, 0x1c, 0xcd, 0x0b, 0xda, 0xca, 0xc9, 0x1c, 0x26,
  0x07, 0x00, 0xf7, 0xb0, 0x12, 0x2a, 0xc0, 0xb8, 0x4e, 0x39, 0x10, 0x26,
  0x14, 0x11, 0x0d, 0x03, 0xac, 0x2e, 0xb2, 0xfe, 0x0c, 0x24, 0xb7, 0xc3,
  0xb7, 0xeb, 0x56, 0x04, 0xfa, 0x38, 0x2c, 0x52, 0xcd, 0xe5, 0x0d, 0x38,
  0x52, 0x4d, 0xbc, 0xd0, 0xc8, 0xbb, 0x3b, 0xf6, 0x28, 0xb7, 0x3f, 0x54,
  0x57, 0xba, 0x00, 0xfe, 0xcc, 0x05, 0x32, 0x2b, 0xc3, 0x2f, 0x4f, 0xca,
  0x10, 0xe5, 0xb2, 0x40, 0xd1, 0xde, 0xb4, 0x0f, 0xbd, 0x1f, 0xee, 0x18,
  0xbc, 0xde, 0x29, 0xda, 0xb4, 0xc6, 0x2a, 0x13, 0x0f, 0x4c, 0x17, 0xfa,
  0x37, 0xc4, 0xef, 0x19, 0x43, 0xdc, 0xae, 0x0b, 0xde, 0xf3, 0x26, 0x0f,
  0x32, 0x1b, 0xfc, 0x4d, 0x4a, 0xef, 0x09, 0xb5, 0x26, 0xb1, 0xd9, 0x57,
  0xe9, 0x18, 0x36, 0xd0, 0xeb, 0x0d, 0x15, 0x40, 0xc9, 0xd3, 0x2f, 0xbe,
  0x55, 0xd6, 0xd6, 0x39, 0x4d, 0x1b, 0xc5, 0x05, 0xe3, 0x4c, 0x0b, 0x46,
  0xff, 0xc4, 0x2c, 0xd9, 0x30, 0x25, 0x3d, 0x52, 0xc8, 0xdf, 0x02, 0x34,
  0x42, 0xbc, 0x15, 0x2e, 0x18, 0x05, 0x0e, 0x12, 0x1a, 0x51, 0x09, 0x22,
  0xfe, 0x50, 0x1d, 0xdc, 0x0b, 0x27, 0xb7, 0x25, 0x2d, 0x22, 0xe7, 0x5b,
  0xdd, 0xcf, 0xc0, 0xdb, 0xd5, 0xd8, 0xfc, 0x24, 0xe1, 0x31, 0x46, 0xdd,
  0xfd, 0xf1, 0x24, 0xef, 0x2e, 0xf1, 0x12, 0xe7, 0xb6, 0x58, 0xed, 0x01,
  0x11, 0x02, 0x09, 0x21, 0x0c, 0xdc, 0x33, 0x5d, 0xf6, 0x33, 0xfa, 0xd5,
  0xb7, 0xc0, 0xc8, 0x32, 0x1f, 0x42, 0xe9, 0x62, 0x35, 0x26, 0xf0, 0x23,
  0xe0, 0x4f, 0xfc, 0xfc, 0x0b, 0xa1, 0x4d, 0x4e, 0xc3, 0x2f, 0x00, 0xd5,
  0x31, 0xea, 0xfa, 0xdb, 0x43, 0x4a, 0x50, 0x49, 0xe7, 0x23, 0xe7, 0x23,
  0xd9, 0x53, 0xf5, 0x12, 0xfc, 0xeb, 0x05, 0x48, 0x0e, 0x11, 0x3d, 0x0f,
  0xe5, 0x34, 0xdc, 0x13, 0x25, 0x3e, 0xbc, 0x58, 0xc5, 0xf3, 0xe5, 0x2d,
  0x48, 0xf8, 0xc3, 0xd7, 0xee, 0x30, 0xd0, 0xd0, 0xaa, 0xc6, 0xc5, 0x37,
  0x0d, 0x52, 0xc8, 0x35, 0x29, 0xc2, 0xcc, 0x5e, 0xb2, 0xf9, 0x2f, 0x27,
  0xc7, 0x47, 0xd8, 0x00, 0xa8, 0x16, 0xe8, 0x16, 0x18, 0xd9, 0xd7, 0x1a,
  0xe7, 0x22, 0xf5, 0x39, 0x01, 0xeb, 0xd2, 0x0b, 0x14, 0x48, 0xce, 0xdf,
  0xe2, 0xe6, 0x2a, 0x36, 0xa9, 0x90, 0xc7, 0xd5, 0x6d, 0xae, 0x10, 0x35,
  0xf7, 0x14, 0xe5, 0x02, 0xb8, 0x35, 0xff, 0x2f, 0xd5, 0x41, 0xe3, 0xec,
  0x0e, 0xe1, 0x30, 0xb4, 0xff, 0x2f, 0xec, 0xbc, 0xcd, 0xcf, 0x15, 0xb1,
  0xf1, 0x3a, 0x3e, 0x24, 0xef, 0xf5, 0x31, 0xe8, 0xdb, 0xdd, 0x49, 0xe6,
  0xee, 0xb0, 0x2c, 0xc1, 0xfd, 0xb4, 0xc5, 0xbd, 0x10, 0x24, 0x3d, 0xc0,
  0xcd, 0x51, 0x15, 0x1b, 0xef, 0x2a, 0xca, 0xe9, 0xb3, 0xd3, 0xee, 0x30,
  0x57, 0x43, 0xb6, 0x2c, 0xc9, 0x08, 0xbf, 0xb9, 0x08, 0x29, 0xe0, 0xf5,
  0xfe, 0xda, 0x2c, 0xb7, 0xe5, 0x2f, 0x4f, 0x57, 0xc6, 0x3d, 0x09, 0x0f,
  0x00, 0x00, 0xd9, 0x48, 0xe3, 0x9d, 0x01, 0x2e, 0xae, 0xcc, 0xd2, 0x2b,
  0xf9, 0xfc, 0xe8, 0x2d, 0xdd, 0x06, 0xdd, 0xc3, 0xd5, 0xc2, 0xc6, 0x1a,
  0x13, 0xea, 0xcc, 0x02, 0xb2, 0x1f, 0xb7, 0x4a, 0x06, 0xf4, 0xe0, 0x20,
  0xc9, 0x5c, 0xd9, 0xc3, 0xe9, 0xed, 0xdc, 0x11, 0xe8, 0x33, 0xbf, 0xf9,
  0xde, 0x1f, 0x06, 0x3f, 0xd6, 0xb9, 0xf9, 0x3a, 0x16, 0x0f, 0x38, 0xa9,
  0x18, 0x5f, 0xdb, 0xc9, 0xe4, 0x27, 0x55, 0xf9, 0x2f, 0x12, 0xd3, 0xa3,
  0xed, 0xf5, 0x1c, 0x0e, 0xe8, 0xfb, 0x5d, 0x0d, 0xa3, 0x2c, 0x49, 0x91,
  0x42, 0x39, 0xe9, 0x12, 0xd7, 0x44, 0x27, 0x16, 0x39, 0x13, 0xf4, 0x41,
  0x08, 0x01, 0xea, 0x04, 0x0b, 0xb9, 0x54, 0xc7, 0x20, 0xfb, 0xd2, 0x9a,
  0x67, 0x4c, 0xc2, 0x2c, 0x00, 0xfb, 0x23, 0x32, 0xee, 0x39, 0x2b, 0x98,
  0x51, 0x2d, 0xac, 0x4a, 0x06, 0x20, 0x0d, 0xd6, 0xd4, 0xd1, 0x1f, 0xc2,
  0x2d, 0xc2, 0xe4, 0xc6, 0x19, 0x0c, 0xcf, 0x16, 0x42, 0x6a, 0x12, 0x41,
  0x2c, 0xd4, 0xf3, 0xc6, 0xbf, 0xbb, 0x14, 0x2e, 0xa2, 0x0e, 0x2c, 0xbc,
  0x62, 0xdb, 0x00, 0xf1, 0xf0, 0x1c, 0x3b, 0xbd, 0xdb, 0xda, 0xdf, 0xb0,
  0x03, 0xc3, 0xc8, 0xed, 0x35, 0xe9, 0xde, 0xe1, 0xda, 0x34, 0x2a, 0xf2,
  0xdb, 0xf4, 0xf6, 0xd3, 0x4d, 0xed, 0x53, 0x42, 0xa8, 0x27, 0xe8, 0xe0,
  0x57, 0xe3, 0x0c, 0x4d, 0x50, 0xfc, 0x5c, 0x03, 0x3e, 0xe2, 0x2c, 0x01,
  0x37, 0xc8, 0x49, 0x4a, 0xdc, 0xd8, 0x18, 0xd5, 0x3d, 0x4c, 0xf9, 0x20,
  0xe6, 0xc0, 0x4d, 0xbc, 0x12, 0xfa, 0x4e, 0x26, 0x27, 0xf7, 0xbb, 0xfc,
  0x4d, 0xdd, 0xbb, 0xf4, 0xc5, 0xd8, 0x47, 0x1d, 0xa6, 0x3e, 0xc7, 0x38,
  0xbe, 0x0a, 0x39, 0xcd, 0x40, 0x17, 0x3c, 0xd1, 0xf5, 0xd4, 0x03, 0xb1,
  0xc4, 0xc4, 0xa8, 0x45, 0x10, 0xa0, 0x1b, 0x17, 0x49, 0xb2, 0x13, 0xe6,
  0x14, 0xd1, 0xdb, 0xba, 0xf7, 0x11, 0x07, 0xd6, 0x1e, 0xf0, 0x0e, 0xe3,
  0xe0, 0x0c, 0xe9, 0x36, 0xe5, 0xd9, 0xde, 0x3a, 0xd3, 0xcf, 0xf8, 0xd2,
  0x37, 0x20, 0xc9, 0x4c, 0xba, 0x63, 0x05, 0x33, 0xcc, 0x1e, 0x1b, 0x54,
  0xfa, 0x15, 0xd2, 0x1d, 0x1e, 0xc3, 0x32, 0xba, 0xb5, 0xe7, 0xdb, 0x28,
  0x43, 0x2a, 0x0a, 0xcb, 0x02, 0xf0, 0x1e, 0xfe, 0xd0, 0xd3, 0x0c, 0x19,
  0x1d, 0xad, 0x20, 0xd6, 0x13, 0xbc, 0xe5, 0xda, 0xb3, 0x01, 0xd1, 0x04,
  0x0a, 0xb6, 0xd8, 0xc2, 0xd1, 0x5a, 0xcc, 0xbb, 0x23, 0xeb, 0x39, 0xb8,
  0x35, 0x33, 0xf0, 0x35, 0xe6, 0xc2, 0xad, 0xd6, 0xd3, 0x14, 0x14, 0xc9,
  0x52, 0xf9, 0x4c, 0xaa, 0xee, 0x05, 0x47, 0x2b, 0x3d, 0xb8, 0xb0, 0x3b,
  0x40, 0xf8, 0xf5, 0xd4, 0x19, 0xe9, 0xff, 0xb9, 0x20, 0x32, 0x57, 0xff,
  0xe2, 0xe8, 0x42, 0xca, 0xc1, 0xd5, 0x24, 0xff, 0x07, 0x3f, 0x51, 0xfe,
  0x15, 0xba, 0xce, 0xeb, 0x3e, 0xe6, 0x1b, 0x36, 0x2f, 0x0a, 0x2a, 0xb5,
  0xd2, 0xf6, 0x2f, 0x5c, 0x3a, 0x52, 0x36, 0xb1, 0x2c, 0x19, 0xe4, 0x00,
  0xec, 0xd9, 0xe4, 0x29, 0xb5, 0x30, 0x54, 0xc4, 0x47, 0x08, 0x17, 0xb0,
  0x5b, 0x18, 0x01, 0x5d, 0x36, 0xed, 0xb9, 0xe6, 0xea, 0x3a, 0xe4, 0x33,
  0x52, 0x0c, 0xd4, 0x16, 0x1d, 0x10, 0xd5, 0x2a, 0x35, 0xe0, 0x02, 0x2f,
  0x4a, 0xd6, 0xcf, 0xdd, 0xcf, 0x4f, 0xff, 0x26, 0xff, 0xfa, 0xe5, 0x54,
  0xbd, 0x0e, 0xfb, 0xde, 0xac, 0x3b, 0xbe, 0xd5, 0x1c, 0x56, 0xd3, 0xcd,
  0xee, 0xa3, 0x13, 0x34, 0x52, 0x50, 0x02, 0xb0, 0xb3, 0x34, 0xc7, 0xf0,
  0x4d, 0xcc, 0xab, 0xbf, 0x41, 0x21, 0x19, 0xda, 0x3c, 0xe8, 0xd4, 0x0b,
  0x0a, 0xc3, 0xc4, 0x37, 0x45, 0xfe, 0x39, 0x12, 0x49, 0xc1, 0x46, 0x43,
  0x27, 0xdd, 0x34, 0xdb, 0x00, 0xa4, 0x02, 0x24, 0xee, 0x00, 0x24, 0x22,
  0xee, 0xca, 0xc7, 0xab, 0xca, 0xdb, 0x40, 0x1f, 0xed, 0x30, 0x1a, 0x17,
  0x50, 0x36, 0xc7, 0x3c, 0x18, 0x19, 0x38, 0x1f, 0xf4, 0xe6, 0x09, 0xb0,
  0xf5, 0x3a, 0xc5, 0xe3, 0x18, 0x27, 0xf6, 0x4d, 0x11, 0x37, 0x06, 0x71,
  0x41, 0xb0, 0xbd, 0xb5, 0xa2, 0xda, 0x20, 0xfe, 0x30, 0xec, 0xc0, 0xbc,
  0xe8, 0xe5, 0xf4, 0xaa, 0xf0, 0xe3, 0x39, 0xc7, 0xbc, 0xb8, 0x04, 0xfd,
  0xba, 0xac, 0x15, 0xf8, 0xd1, 0x3a, 0x18, 0xda, 0xb3, 0xf4, 0xb6, 0xcb,
  0x00, 0xa6, 0xba, 0xfb, 0x0d, 0xcb, 0xe4, 0xbe, 0x12, 0xb8, 0xe4, 0xd3,
  0x3f, 0xea, 0xc5, 0x42, 0x0d, 0xdc, 0xae, 0x28, 0xad, 0x1a, 0x41, 0x26,
  0xe9, 0x03, 0x30, 0x4a, 0x02, 0x14, 0x3b, 0x36, 0xf3, 0xc5, 0xc6, 0xe9,
  0x36, 0x45, 0xbf, 0xe8, 0x21, 0xe9, 0xc5, 0x27, 0xd5, 0x05, 0xc3, 0xd0,
  0xbd, 0xe4, 0xbc, 0xd7, 0xc1, 0x40, 0xf2, 0xee, 0x45, 0x2f, 0xbb, 0x2a,
  0xc1, 0x52, 0xc3, 0xed, 0xdf, 0xe3, 0xf5, 0x3a, 0xa6, 0xde, 0x40, 0xc1,
  0xb0, 0x01, 0xe7, 0xf1, 0xfb, 0xf9, 0xd1, 0x0d, 0xbc, 0x0a, 0x08, 0xc5,
  0x1d, 0x26, 0x40, 0xdd, 0xfa, 0x2d, 0x1b, 0x43, 0x50, 0x26, 0x31, 0x3e,
  0xa7, 0x43, 0xaa, 0x25, 0xca, 0x01, 0xa8, 0xe2, 0xcd, 0xf2, 0x3e, 0x5f,
  0xf4, 0xff, 0x3f, 0x1b, 0xc0, 0x5f, 0xc9, 0x11, 0x1d, 0xa2, 0xa3, 0xaf,
  0x26, 0x0b, 0xc0, 0x31, 0xf3, 0xc0, 0x0c, 0x36, 0x29, 0x29, 0x1c, 0x31,
  0xc0, 0x3f, 0x63, 0xeb, 0x1d, 0x24, 0xb0, 0x46, 0x49, 0xc9, 0xb3, 0xc5,
  0x4f, 0x3a, 0xde, 0x13, 0xf5, 0x4d, 0x49, 0xda, 0xdc, 0xfc, 0x68, 0x2b,
  0x51, 0x4f, 0xd2, 0x4f, 0x54, 0xc6, 0x00, 0x0f, 0x13, 0xe8, 0xe6, 0x62,
  0xec, 0x33, 0xe4, 0xe0, 0xc1, 0xcc, 0x19, 0x49, 0x37, 0xa8, 0x41, 0x09,
  0x27, 0x56, 0x32, 0xfb, 0xae, 0x3c, 0xed, 0x10, 0x16, 0xff, 0xff, 0xff,
  0x04, 0x00, 0x00, 0x00, 0x10, 0x00, 0x00, 0x00, 0x09, 0x00, 0x00, 0x00,
  0xff, 0xff, 0xff, 0xff, 0xfc, 0xff, 0xff, 0xff, 0x01, 0x00, 0x00, 0x00,
  0x32, 0xff, 0xff, 0xff, 0x04, 0x00, 0x00, 0x00, 0x08, 0x00, 0x00, 0x00,
  0xff, 0xff, 0xff, 0xff, 0xec, 0x04, 0x00, 0x00, 0x38, 0xf4, 0xff, 0xff,
  0x3c, 0xf4, 0xff, 0xff, 0x0f, 0x00, 0x00, 0x00, 0x4d, 0x4c, 0x49, 0x52,
  0x20, 0x43, 0x6f, 0x6e, 0x76, 0x65, 0x72, 0x74, 0x65, 0x64, 0x2e, 0x00,
  0x01, 0x00, 0x00, 0x00, 0x14, 0x00, 0x00, 0x00, 0x00, 0x00, 0x0e, 0x00,
  0x18, 0x00, 0x14, 0x00, 0x10, 0x00, 0x0c, 0x00, 0x08, 0x00, 0x04, 0x00,
  0x0e, 0x00, 0x00, 0x00, 0x14, 0x00, 0x00, 0x00, 0x1c, 0x00, 0x00, 0x00,
  0x58, 0x02, 0x00, 0x00, 0x5c, 0x02, 0x00, 0x00, 0x60, 0x02, 0x00, 0x00,
  0x04, 0x00, 0x00, 0x00, 0x6d, 0x61, 0x69, 0x6e, 0x00, 0x00, 0x00, 0x00,
  0x09, 0x00, 0x00, 0x00, 0x20, 0x02, 0x00, 0x00, 0xc0, 0x01, 0x00, 0x00,
  0x5c, 0x01, 0x00, 0x00, 0x14, 0x01, 0x00, 0x00, 0xd0, 0x00, 0x00, 0x00,
  0xa8, 0x00, 0x00, 0x00, 0x64, 0x00, 0x00, 0x00, 0x28, 0x00, 0x00, 0x00,
  0x04, 0x00, 0x00, 0x00, 0x72, 0xff, 0xff, 0xff, 0x0c, 0x00, 0x00, 0x00,
  0x10, 0x00, 0x00, 0x00, 0x06, 0x00, 0x00, 0x00, 0x01, 0x00, 0x00, 0x00,
  0x10, 0x00, 0x00, 0x00, 0x01, 0x00, 0x00, 0x00, 0x0f, 0x00, 0x00, 0x00,
  0x8e, 0xfe, 0xff, 0xff, 0x1c, 0x00, 0x00, 0x00, 0x00, 0x00, 0x00, 0x09,
  0x1c, 0x00, 0x00, 0x00, 0x20, 0x00, 0x00, 0x00, 0x05, 0x00, 0x00, 0x00,
  0x00, 0x00, 0x06, 0x00, 0x08, 0x00, 0x04, 0x00, 0x06, 0x00, 0x00, 0x00,
  0x00, 0x00, 0x80, 0x3f, 0x01, 0x00, 0x00, 0x00, 0x0f, 0x00, 0x00, 0x00,
  0x01, 0x00, 0x00, 0x00, 0x0e, 0x00, 0x00, 0x00, 0xc6, 0xfe, 0xff, 0xff,
  0x14, 0x00, 0x00, 0x00, 0x00, 0x00, 0x00, 0x08, 0x10, 0x00, 0x00, 0x00,
  0x14, 0x00, 0x00, 0x00, 0x04, 0x00, 0x00, 0x00, 0x28, 0xf5, 0xff, 0xff,
  0x01, 0x00, 0x00, 0x00, 0x0e, 0x00, 0x00, 0x00, 0x03, 0x00, 0x00, 0x00,
  0x0d, 0x00, 0x00, 0x00, 0x03, 0x00, 0x00, 0x00, 0x02, 0x00, 0x00, 0x00,
  0x00, 0x00, 0x0a, 0x00, 0x10, 0x00, 0x0c, 0x00, 0x08, 0x00, 0x04, 0x00,
  0x0a, 0x00, 0x00, 0x00, 0x0c, 0x00, 0x00, 0x00, 0x10, 0x00, 0x00, 0x00,
  0x03, 0x00, 0x00, 0x00, 0x01, 0x00, 0x00, 0x00, 0x0d, 0x00, 0x00, 0x00,
  0x02, 0x00, 0x00, 0x00, 0x0c, 0x00, 0x00, 0x00, 0x01, 0x00, 0x00, 0x00,
  0x2a, 0xff, 0xff, 0xff, 0x14, 0x00, 0x00, 0x00, 0x00, 0x00, 0x00, 0x05,
  0x24, 0x00, 0x00, 0x00, 0x28, 0x00, 0x00, 0x00, 0x02, 0x00, 0x00, 0x00,
  0x7a, 0xff, 0xff, 0xff, 0x02, 0x00, 0x00, 0x00, 0x02, 0x00, 0x00, 0x00,
  0x02, 0x00, 0x00, 0x00, 0x02, 0x00, 0x00, 0x00, 0x00, 0x00, 0x00, 0x01,
  0x01, 0x00, 0x00, 0x00, 0x0c, 0x00, 0x00, 0x00, 0x01, 0x00, 0x00, 0x00,
  0x0b, 0x00, 0x00, 0x00, 0x6a, 0xff, 0xff, 0xff, 0x14, 0x00, 0x00, 0x00,
  0x00, 0x00, 0x00, 0x01, 0x20, 0x00, 0x00, 0x00, 0x24, 0x00, 0x00, 0x00,
  0x01, 0x00, 0x00, 0x00, 0x5c, 0xff, 0xff, 0xff, 0x00, 0x00, 0x00, 0x01,
  0x01, 0x00, 0x00, 0x00, 0x01, 0x00, 0x00, 0x00, 0x00, 0x00, 0x00, 0x01,
  0x01, 0x00, 0x00, 0x00, 0x0b, 0x00, 0x00, 0x00, 0x03, 0x00, 0x00, 0x00,
  0x0a, 0x00, 0x00, 0x00, 0x05, 0x00, 0x00, 0x00, 0x04, 0x00, 0x00, 0x00,
  0xae, 0xff, 0xff, 0xff, 0x24, 0x00, 0x00, 0x00, 0x00, 0x00, 0x00, 0x05,
  0x34, 0x00, 0x00, 0x00, 0x38, 0x00, 0x00, 0x00, 0x02, 0x00, 0x00, 0x00,
  0x00, 0x00, 0x0e, 0x00, 0x18, 0x00, 0x17, 0x00, 0x10, 0x00, 0x0c, 0x00,
  0x08, 0x00, 0x04, 0x00, 0x0e, 0x00, 0x00, 0x00, 0x02, 0x00, 0x00, 0x00,
  0x02, 0x00, 0x00, 0x00, 0x02, 0x00, 0x00, 0x00, 0x02, 0x00, 0x00, 0x00,
  0x00, 0x00, 0x00, 0x01, 0x01, 0x00, 0x00, 0x00, 0x0a, 0x00, 0x00, 0x00,
  0x01, 0x00, 0x00, 0x00, 0x09, 0x00, 0x00, 0x00, 0x00, 0x00, 0x0e, 0x00,
  0x18, 0x00, 0x14, 0x00, 0x10, 0x00, 0x0c, 0x00, 0x0b, 0x00, 0x04, 0x00,
  0x0e, 0x00, 0x00, 0x00, 0x20, 0x00, 0x00, 0x00, 0x00, 0x00, 0x00, 0x01,
  0x2c, 0x00, 0x00, 0x00, 0x30, 0x00, 0x00, 0x00, 0x01, 0x00, 0x00, 0x00,
  0x0c, 0x00, 0x14, 0x00, 0x13, 0x00, 0x0c, 0x00, 0x08, 0x00, 0x07, 0x00,
  0x0c, 0x00, 0x00, 0x00, 0x00, 0x00, 0x00, 0x01, 0x01, 0x00, 0x00, 0x00,
  0x01, 0x00, 0x00, 0x00, 0x00, 0x00, 0x00, 0x01, 0x01, 0x00, 0x00, 0x00,
  0x09, 0x00, 0x00, 0x00, 0x03, 0x00, 0x00, 0x00, 0x08, 0x00, 0x00, 0x00,
  0x07, 0x00, 0x00, 0x00, 0x06, 0x00, 0x00, 0x00, 0x00, 0x00, 0x0a, 0x00,
  0x0c, 0x00, 0x00, 0x00, 0x08, 0x00, 0x04, 0x00, 0x0a, 0x00, 0x00, 0x00,
  0x08, 0x00, 0x00, 0x00, 0x0c, 0x00, 0x00, 0x00, 0x01, 0x00, 0x00, 0x00,
  0x08, 0x00, 0x00, 0x00, 0x01, 0x00, 0x00, 0x00, 0x00, 0x00, 0x00, 0x00,
  0x01, 0x00, 0x00, 0x00, 0x10, 0x00, 0x00, 0x00, 0x01, 0x00, 0x00, 0x00,
  0x00, 0x00, 0x00, 0x00, 0x11, 0x00, 0x00, 0x00, 0xec, 0x08, 0x00, 0x00,
  0x90, 0x08, 0x00, 0x00, 0xf8, 0x07, 0x00, 0x00, 0x90, 0x07, 0x00, 0x00,
  0x04, 0x07, 0x00, 0x00, 0x78, 0x06, 0x00, 0x00, 0xe4, 0x05, 0x00, 0x00,
  0x50, 0x05, 0x00, 0x00, 0xcc, 0x04, 0x00, 0x00, 0xe0, 0x03, 0x00, 0x00,
  0x54, 0x03, 0x00, 0x00, 0x78, 0x02, 0x00, 0x00, 0xe4, 0x01, 0x00, 0x00,
  0x68, 0x01, 0x00, 0x00, 0xdc, 0x00, 0x00, 0x00, 0x60, 0x00, 0x00, 0x00,
  0x04, 0x00, 0x00, 0x00, 0x6e, 0xf7, 0xff, 0xff, 0x00, 0x00, 0x00, 0x01,
  0x14, 0x00, 0x00, 0x00, 0x1c, 0x00, 0x00, 0x00, 0x1c, 0x00, 0x00, 0x00,
  0x11, 0x00, 0x00, 0x00, 0x34, 0x00, 0x00, 0x00, 0x02, 0x00, 0x00, 0x00,
  0xff, 0xff, 0xff, 0xff, 0x04, 0x00, 0x00, 0x00, 0x50, 0xf7, 0xff, 0xff,
  0x19, 0x00, 0x00, 0x00, 0x53, 0x74, 0x61, 0x74, 0x65, 0x66, 0x75, 0x6c,
  0x50, 0x61, 0x72, 0x74, 0x69, 0x74, 0x69, 0x6f, 0x6e, 0x65, 0x64, 0x43,
  0x61, 0x6c, 0x6c, 0x3a, 0x30, 0x00, 0x00, 0x00, 0x02, 0x00, 0x00, 0x00,
  0x01, 0x00, 0x00, 0x00, 0x04, 0x00, 0x00, 0x00, 0xc6, 0xfb, 0xff, 0xff,
  0x00, 0x00, 0x00, 0x01, 0x18, 0x00, 0x00, 0x00, 0x20, 0x00, 0x00, 0x00,
  0x3c, 0x00, 0x00, 0x00, 0x10, 0x00, 0x00, 0x00, 0x00, 0x00, 0x00, 0x09,
  0x50, 0x00, 0x00, 0x00, 0x02, 0x00, 0x00, 0x00, 0xff, 0xff, 0xff, 0xff,
  0x04, 0x00, 0x00, 0x00, 0xac, 0xf8, 0xff, 0xff, 0x08, 0x00, 0x00, 0x00,
  0x10, 0x00, 0x00, 0x00, 0x01, 0x00, 0x00, 0x00, 0x80, 0xff, 0xff, 0xff,
  0xff, 0xff, 0xff, 0xff, 0x01, 0x00, 0x00, 0x00, 0x00, 0x00, 0x80, 0x3b,
  0x1a, 0x00, 0x00, 0x00, 0x53, 0x74, 0x61, 0x74, 0x65, 0x66, 0x75, 0x6c,
  0x50, 0x61, 0x72, 0x74, 0x69, 0x74, 0x69, 0x6f, 0x6e, 0x65, 0x64, 0x43,
  0x61, 0x6c, 0x6c, 0x3a, 0x30, 0x31, 0x00, 0x00, 0x02, 0x00, 0x00, 0x00,
  0x01, 0x00, 0x00, 0x00, 0x04, 0x00, 0x00, 0x00, 0x3e, 0xfc, 0xff, 0xff,
  0x00, 0x00, 0x00, 0x01, 0x18, 0x00, 0x00, 0x00, 0x20, 0x00, 0x00, 0x00,
  0x40, 0x00, 0x00, 0x00, 0x0f, 0x00, 0x00, 0x00, 0x00, 0x00, 0x00, 0x09,
  0x60, 0x00, 0x00, 0x00, 0x02, 0x00, 0x00, 0x00, 0xff, 0xff, 0xff, 0xff,
  0x04, 0x00, 0x00, 0x00, 0x24, 0xf9, 0xff, 0xff, 0x08, 0x00, 0x00, 0x00,
  0x14, 0x00, 0x00, 0x00, 0x01, 0x00, 0x00, 0x00, 0xc9, 0xff, 0xff, 0xff,
  0xff, 0xff, 0xff, 0xff, 0x00, 0x00, 0x00, 0x00, 0x01, 0x00, 0x00, 0x00,
  0x1f, 0xe5, 0xe2, 0x3e, 0x26, 0x00, 0x00, 0x00, 0x6d, 0x6f, 0x64, 0x65,
  0x6c, 0x2f, 0x64, 0x65, 0x6e, 0x73, 0x65, 0x2f, 0x4d, 0x61, 0x74, 0x4d,
  0x75, 0x6c, 0x3b, 0x6d, 0x6f, 0x64, 0x65, 0x6c, 0x2f, 0x64, 0x65, 0x6e,
  0x73, 0x65, 0x2f, 0x42, 0x69, 0x61, 0x73, 0x41, 0x64, 0x64, 0x00, 0x00,
  0x02, 0x00, 0x00, 0x00, 0x01, 0x00, 0x00, 0x00, 0x04, 0x00, 0x00, 0x00,
  0xc6, 0xfc, 0xff, 0xff, 0x00, 0x00, 0x00, 0x01, 0x18, 0x00, 0x00, 0x00,
  0x20, 0x00, 0x00, 0x00, 0x40, 0x00, 0x00, 0x00, 0x0e, 0x00, 0x00, 0x00,
  0x00, 0x00, 0x00, 0x09, 0x50, 0x00, 0x00, 0x00, 0x02, 0x00, 0x00, 0x00,
  0xff, 0xff, 0xff, 0xff, 0xec, 0x04, 0x00, 0x00, 0xac, 0xf9, 0xff, 0xff,
  0x08, 0x00, 0x00, 0x00, 0x14, 0x00, 0x00, 0x00, 0x01, 0x00, 0x00, 0x00,
  0x80, 0xff, 0xff, 0xff, 0xff, 0xff, 0xff, 0xff, 0x00, 0x00, 0x00, 0x00,
  0x01, 0x00, 0x00, 0x00, 0x34, 0xe7, 0xd3, 0x3e, 0x15, 0x00, 0x00, 0x00,
  0x6d, 0x6f, 0x64, 0x65, 0x6c, 0x2f, 0x66, 0x6c, 0x61, 0x74, 0x74, 0x65,
  0x6e, 0x2f, 0x52, 0x65, 0x73, 0x68, 0x61, 0x70, 0x65, 0x00, 0x00, 0x00,
  0x02, 0x00, 0x00, 0x00, 0x01, 0x00, 0x00, 0x00, 0xec, 0x04, 0x00, 0x00,
  0x3e, 0xfd, 0xff, 0xff, 0x00, 0x00, 0x00, 0x01, 0x18, 0x00, 0x00, 0x00,
  0x28, 0x00, 0x00, 0x00, 0x48, 0x00, 0x00, 0x00, 0x0d, 0x00, 0x00, 0x00,
  0x00, 0x00, 0x00, 0x09, 0x60, 0x00, 0x00, 0x00, 0x04, 0x00, 0x00, 0x00,
  0xff, 0xff, 0xff, 0xff, 0x1e, 0x00, 0x00, 0x00, 0x0e, 0x00, 0x00, 0x00,
  0x03, 0x00, 0x00, 0x00, 0x2c, 0xfa, 0xff, 0xff, 0x08, 0x00, 0x00, 0x00,
  0x14, 0x00, 0x00, 0x00, 0x01, 0x00, 0x00, 0x00, 0x80, 0xff, 0xff, 0xff,
  0xff, 0xff, 0xff, 0xff, 0x00, 0x00, 0x00, 0x00, 0x01, 0x00, 0x00, 0x00,
  0x34, 0xe7, 0xd3, 0x3e, 0x1d, 0x00, 0x00, 0x00, 0x6d, 0x6f, 0x64, 0x65,
  0x6c, 0x2f, 0x6d, 0x61, 0x78, 0x5f, 0x70, 0x6f, 0x6f, 0x6c, 0x69, 0x6e,
  0x67, 0x32, 0x64, 0x5f, 0x31, 0x2f, 0x4d, 0x61, 0x78, 0x50, 0x6f, 0x6f,
  0x6c, 0x00, 0x00, 0x00, 0x04, 0x00, 0x00, 0x00, 0x01, 0x00, 0x00, 0x00,
  0x1e, 0x00, 0x00, 0x00, 0x0e, 0x00, 0x00, 0x00, 0x03, 0x00, 0x00, 0x00,
  0xce, 0xfd, 0xff, 0xff, 0x00, 0x00, 0x00, 0x01, 0x18, 0x00, 0x00, 0x00,
  0x28, 0x00, 0x00, 0x00, 0x48, 0x00, 0x00, 0x00, 0x0c, 0x00, 0x00, 0x00,
  0x00, 0x00, 0x00, 0x09, 0xa8, 0x00, 0x00, 0x00, 0x04, 0x00, 0x00, 0x00,
  0xff, 0xff, 0xff, 0xff, 0x3c, 0x00, 0x00, 0x00, 0x1d, 0x00, 0x00, 0x00,
  0x03, 0x00, 0x00, 0x00, 0xbc, 0xfa, 0xff, 0xff, 0x08, 0x00, 0x00, 0x00,
  0x14, 0x00, 0x00, 0x00, 0x01, 0x00, 0x00, 0x00, 0x80, 0xff, 0xff, 0xff,
  0xff, 0xff, 0xff, 0xff, 0x00, 0x00, 0x00, 0x00, 0x01, 0x00, 0x00, 0x00,
  0x34, 0xe7, 0xd3, 0x3e, 0x66, 0x00, 0x00, 0x00, 0x6d, 0x6f, 0x64, 0x65,
  0x6c, 0x2f, 0x63, 0x6f, 0x6e, 0x76, 0x32, 0x64, 0x5f, 0x31, 0x2f, 0x52,
  0x65, 0x6c, 0x75, 0x3b, 0x6d, 0x6f, 0x64, 0x65, 0x6c, 0x2f, 0x63, 0x6f,
  0x6e, 0x76, 0x32, 0x64, 0x5f, 0x31, 0x2f, 0x42, 0x69, 0x61, 0x73, 0x41,
  0x64, 0x64, 0x3b, 0x6d, 0x6f, 0x64, 0x65, 0x6c, 0x2f, 0x63, 0x6f, 0x6e,
  0x76, 0x32, 0x64, 0x5f, 0x31, 0x2f, 0x43, 0x6f, 0x6e, 0x76, 0x32, 0x44,
  0x3b, 0x6d, 0x6f, 0x64, 0x65, 0x6c, 0x2f, 0x63, 0x6f, 0x6e, 0x76, 0x32,
  0x64, 0x5f, 0x31, 0x2f, 0x42, 0x69, 0x61, 0x73, 0x41, 0x64, 0x64, 0x2f,
  0x52, 0x65, 0x61, 0x64, 0x56, 0x61, 0x72, 0x69, 0x61, 0x62, 0x6c, 0x65,
  0x4f, 0x70, 0x00, 0x00, 0x04, 0x00, 0x00, 0x00, 0x01, 0x00, 0x00, 0x00,
  0x3c, 0x00, 0x00, 0x00, 0x1d, 0x00, 0x00, 0x00, 0x03, 0x00, 0x00, 0x00,
  0xa6, 0xfe, 0xff, 0xff, 0x00, 0x00, 0x00, 0x01, 0x18, 0x00, 0x00, 0x00,
  0x28, 0x00, 0x00, 0x00, 0x44, 0x00, 0x00, 0x00, 0x0b, 0x00, 0x00, 0x00,
  0x00, 0x00, 0x00, 0x09, 0x58, 0x00, 0x00, 0x00, 0x04, 0x00, 0x00, 0x00,
  0xff, 0xff, 0xff, 0xff, 0x3e, 0x00, 0x00, 0x00, 0x1f, 0x00, 0x00, 0x00,
  0x04, 0x00, 0x00, 0x00, 0x94, 0xfb, 0xff, 0xff, 0x08, 0x00, 0x00, 0x00,
  0x10, 0x00, 0x00, 0x00, 0x01, 0x00, 0x00, 0x00, 0x80, 0xff, 0xff, 0xff,
  0xff, 0xff, 0xff, 0xff, 0x01, 0x00, 0x00, 0x00, 0x0a, 0xf4, 0x23, 0x3f,
  0x1b, 0x00, 0x00, 0x00, 0x6d, 0x6f, 0x64, 0x65, 0x6c, 0x2f, 0x6d, 0x61,
  0x78, 0x5f, 0x70, 0x6f, 0x6f, 0x6c, 0x69, 0x6e, 0x67, 0x32, 0x64, 0x2f,
  0x4d, 0x61, 0x78, 0x50, 0x6f, 0x6f, 0x6c, 0x00, 0x04, 0x00, 0x00, 0x00,
  0x01, 0x00, 0x00, 0x00, 0x3e, 0x00, 0x00, 0x00, 0x1f, 0x00, 0x00, 0x00,
  0x04, 0x00, 0x00, 0x00, 0x2e, 0xff, 0xff, 0xff, 0x00, 0x00, 0x00, 0x01,
  0x18, 0x00, 0x00, 0x00, 0x28, 0x00, 0x00, 0x00, 0x48, 0x00, 0x00, 0x00,
  0x0a, 0x00, 0x00, 0x00, 0x00, 0x00, 0x00, 0x09, 0xa0, 0x00, 0x00, 0x00,
  0x04, 0x00, 0x00, 0x00, 0xff, 0xff, 0xff, 0xff, 0x7c, 0x00, 0x00, 0x00,
  0x3f, 0x00, 0x00, 0x00, 0x04, 0x00, 0x00, 0x00, 0x1c, 0xfc, 0xff, 0xff,
  0x08, 0x00, 0x00, 0x00, 0x14, 0x00, 0x00, 0x00, 0x01, 0x00, 0x00, 0x00,
  0x80, 0xff, 0xff, 0xff, 0xff, 0xff, 0xff, 0xff, 0x00, 0x00, 0x00, 0x00,
  0x01, 0x00, 0x00, 0x00, 0x0a, 0xf4, 0x23, 0x3f, 0x5e, 0x00, 0x00, 0x00,
  0x6d, 0x6f, 0x64, 0x65, 0x6c, 0x2f, 0x63, 0x6f, 0x6e, 0x76, 0x32, 0x64,
  0x2f, 0x52, 0x65, 0x6c, 0x75, 0x3b, 0x6d, 0x6f, 0x64, 0x65, 0x6c, 0x2f,
  0x63, 0x6f, 0x6e, 0x76, 0x32, 0x64, 0x2f, 0x42, 0x69, 0x61, 0x73, 0x41,
  0x64, 0x64, 0x3b, 0x6d, 0x6f, 0x64, 0x65, 0x6c, 0x2f, 0x63, 0x6f, 0x6e,
  0x76, 0x32, 0x64, 0x2f, 0x43, 0x6f, 0x6e, 0x76, 0x32, 0x44, 0x3b, 0x6d,
  0x6f, 0x64, 0x65, 0x6c, 0x2f, 0x63, 0x6f, 0x6e, 0x76, 0x32, 0x64, 0x2f,
  0x42, 0x69, 0x61, 0x73, 0x41, 0x64, 0x64, 0x2f, 0x52, 0x65, 0x61, 0x64,
  0x56, 0x61, 0x72, 0x69, 0x61, 0x62, 0x6c, 0x65, 0x4f, 0x70, 0x00, 0x00,
  0x04, 0x00, 0x00, 0x00, 0x01, 0x00, 0x00, 0x00, 0x7c, 0x00, 0x00, 0x00,
  0x3f, 0x00, 0x00, 0x00, 0x04, 0x00, 0x00, 0x00, 0x00, 0x00, 0x16, 0x00,
  0x20, 0x00, 0x1c, 0x00, 0x1b, 0x00, 0x14, 0x00, 0x10, 0x00, 0x0c, 0x00,
  0x00, 0x00, 0x00, 0x00, 0x08, 0x00, 0x07, 0x00, 0x16, 0x00, 0x00, 0x00,
  0x00, 0x00, 0x00, 0x01, 0x18, 0x00, 0x00, 0x00, 0x28, 0x00, 0x00, 0x00,
  0x48, 0x00, 0x00, 0x00, 0x09, 0x00, 0x00, 0x00, 0x00, 0x00, 0x00, 0x09,
  0x50, 0x00, 0x00, 0x00, 0x04, 0x00, 0x00, 0x00, 0xff, 0xff, 0xff, 0xff,
  0x7e, 0x00, 0x00, 0x00, 0x41, 0x00, 0x00, 0x00, 0x01, 0x00, 0x00, 0x00,
  0x04, 0xfd, 0xff, 0xff, 0x08, 0x00, 0x00, 0x00, 0x14, 0x00, 0x00, 0x00,
  0x01, 0x00, 0x00, 0x00, 0x80, 0xff, 0xff, 0xff, 0xff, 0xff, 0xff, 0xff,
  0x00, 0x00, 0x00, 0x00, 0x01, 0x00, 0x00, 0x00, 0x00, 0x00, 0x80, 0x3f,
  0x0c, 0x00, 0x00, 0x00, 0x74, 0x66, 0x6c, 0x2e, 0x71, 0x75, 0x61, 0x6e,
  0x74, 0x69, 0x7a, 0x65, 0x00, 0x00, 0x00, 0x00, 0x04, 0x00, 0x00, 0x00,
  0x01, 0x00, 0x00, 0x00, 0x7e, 0x00, 0x00, 0x00, 0x41, 0x00, 0x00, 0x00,
  0x01, 0x00, 0x00, 0x00, 0xee, 0xfc, 0xff, 0xff, 0x00, 0x00, 0x00, 0x01,
  0x14, 0x00, 0x00, 0x00, 0x58, 0x00, 0x00, 0x00, 0x08, 0x00, 0x00, 0x00,
  0x00, 0x00, 0x00, 0x09, 0x64, 0x00, 0x00, 0x00, 0x6c, 0xfd, 0xff, 0xff,
  0x08, 0x00, 0x00, 0x00, 0x2c, 0x00, 0x00, 0x00, 0x04, 0x00, 0x00, 0x00,
  0x00, 0x00, 0x00, 0x00, 0x00, 0x00, 0x00, 0x00, 0x00, 0x00, 0x00, 0x00,
  0x00, 0x00, 0x00, 0x00, 0x00, 0x00, 0x00, 0x00, 0x00, 0x00, 0x00, 0x00,
  0x00, 0x00, 0x00, 0x00, 0x00, 0x00, 0x00, 0x00, 0x00, 0x00, 0x00, 0x00,
  0x04, 0x00, 0x00, 0x00, 0xe2, 0x63, 0x3a, 0x3b, 0xdd, 0x02, 0x43, 0x3b,
  0x30, 0x7c, 0x19, 0x3b, 0x99, 0x49, 0x38, 0x3b, 0x13, 0x00, 0x00, 0x00,
  0x6d, 0x6f, 0x64, 0x65, 0x6c, 0x2f, 0x63, 0x6f, 0x6e, 0x76, 0x32, 0x64,
  0x2f, 0x43, 0x6f, 0x6e, 0x76, 0x32, 0x44, 0x00, 0x04, 0x00, 0x00, 0x00,
  0x04, 0x00, 0x00, 0x00, 0x03, 0x00, 0x00, 0x00, 0x03, 0x00, 0x00, 0x00,
  0x01, 0x00, 0x00, 0x00, 0x7e, 0xfd, 0xff, 0xff, 0x00, 0x00, 0x00, 0x01,
  0x14, 0x00, 0x00, 0x00, 0x54, 0x00, 0x00, 0x00, 0x07, 0x00, 0x00, 0x00,
  0x00, 0x00, 0x00, 0x02, 0x70, 0x00, 0x00, 0x00, 0xfc, 0xfd, 0xff, 0xff,
  0x08, 0x00, 0x00, 0x00, 0x28, 0x00, 0x00, 0x00, 0x04, 0x00, 0x00, 0x00,
  0x00, 0x00, 0x00, 0x00, 0x00, 0x00, 0x00, 0x00, 0x00, 0x00, 0x00, 0x00,
  0x00, 0x00, 0x00, 0x00, 0x00, 0x00, 0x00, 0x00, 0x00, 0x00, 0x00, 0x00,
  0x00, 0x00, 0x00, 0x00, 0x00, 0x00, 0x00, 0x00, 0x04, 0x00, 0x00, 0x00,
  0xe2, 0x63, 0x3a, 0x3b, 0xdd, 0x02, 0x43, 0x3b, 0x30, 0x7c, 0x19, 0x3b,
  0x99, 0x49, 0x38, 0x3b, 0x23, 0x00, 0x00, 0x00, 0x6d, 0x6f, 0x64, 0x65,
  0x6c, 0x2f, 0x63, 0x6f, 0x6e, 0x76, 0x32, 0x64, 0x2f, 0x42, 0x69, 0x61,
  0x73, 0x41, 0x64, 0x64, 0x2f, 0x52, 0x65, 0x61, 0x64, 0x56, 0x61, 0x72,
  0x69, 0x61, 0x62, 0x6c, 0x65, 0x4f, 0x70, 0x00, 0x01, 0x00, 0x00, 0x00,
  0x04, 0x00, 0x00, 0x00, 0x0e, 0xfe, 0xff, 0xff, 0x00, 0x00, 0x00, 0x01,
  0x14, 0x00, 0x00, 0x00, 0x4c, 0x00, 0x00, 0x00, 0x06, 0x00, 0x00, 0x00,
  0x00, 0x00, 0x00, 0x09, 0x5c, 0x00, 0x00, 0x00, 0x8c, 0xfe, 0xff, 0xff,
  0x08, 0x00, 0x00, 0x00, 0x24, 0x00, 0x00, 0x00, 0x03, 0x00, 0x00, 0x00,
  0x00, 0x00, 0x00, 0x00, 0x00, 0x00, 0x00, 0x00, 0x00, 0x00, 0x00, 0x00,
  0x00, 0x00, 0x00, 0x00, 0x00, 0x00, 0x00, 0x00, 0x00, 0x00, 0x00, 0x00,
  0x00, 0x00, 0x00, 0x00, 0x03, 0x00, 0x00, 0x00, 0xa8, 0x84, 0x20, 0x3b,
  0x17, 0x29, 0x15, 0x3b, 0xc8, 0xf1, 0x1a, 0x3b, 0x15, 0x00, 0x00, 0x00,
  0x6d, 0x6f, 0x64, 0x65, 0x6c, 0x2f, 0x63, 0x6f, 0x6e, 0x76, 0x32, 0x64,
  0x5f, 0x31, 0x2f, 0x43, 0x6f, 0x6e, 0x76, 0x32, 0x44, 0x00, 0x00, 0x00,
  0x04, 0x00, 0x00, 0x00, 0x03, 0x00, 0x00, 0x00, 0x03, 0x00, 0x00, 0x00,
  0x03, 0x00, 0x00, 0x00, 0x04, 0x00, 0x00, 0x00, 0x96, 0xfe, 0xff, 0xff,
  0x00, 0x00, 0x00, 0x01, 0x14, 0x00, 0x00, 0x00, 0x48, 0x00, 0x00, 0x00,
  0x05, 0x00, 0x00, 0x00, 0x00, 0x00, 0x00, 0x02, 0x68, 0x00, 0x00, 0x00,
  0x14, 0xff, 0xff, 0xff, 0x08, 0x00, 0x00, 0x00, 0x20, 0x00, 0x00, 0x00,
  0x03, 0x00, 0x00, 0x00, 0x00, 0x00, 0x00, 0x00, 0x00, 0x00, 0x00, 0x00,
  0x00, 0x00, 0x00, 0x00, 0x00, 0x00, 0x00, 0x00, 0x00, 0x00, 0x00, 0x00,
  0x00, 0x00, 0x00, 0x00, 0x03, 0x00, 0x00, 0x00, 0xf7, 0x9a, 0xcd, 0x3a,
  0xb5, 0x0e, 0xbf, 0x3a, 0x4e, 0x77, 0xc6, 0x3a, 0x25, 0x00, 0x00, 0x00,
  0x6d, 0x6f, 0x64, 0x65, 0x6c, 0x2f, 0x63, 0x6f, 0x6e, 0x76, 0x32, 0x64,
  0x5f, 0x31, 0x2f, 0x42, 0x69, 0x61, 0x73, 0x41, 0x64, 0x64, 0x2f, 0x52,
  0x65, 0x61, 0x64, 0x56, 0x61, 0x72, 0x69, 0x61, 0x62, 0x6c, 0x65, 0x4f,
  0x70, 0x00, 0x00, 0x00, 0x01, 0x00, 0x00, 0x00, 0x03, 0x00, 0x00, 0x00,
  0x1e, 0xff, 0xff, 0xff, 0x00, 0x00, 0x00, 0x01, 0x14, 0x00, 0x00, 0x00,
  0x34, 0x00, 0x00, 0x00, 0x04, 0x00, 0x00, 0x00, 0x00, 0x00, 0x00, 0x09,
  0x40, 0x00, 0x00, 0x00, 0x9c, 0xff, 0xff, 0xff, 0x08, 0x00, 0x00, 0x00,
  0x14, 0x00, 0x00, 0x00, 0x01, 0x00, 0x00, 0x00, 0x00, 0x00, 0x00, 0x00,
  0x00, 0x00, 0x00, 0x00, 0x00, 0x00, 0x00, 0x00, 0x01, 0x00, 0x00, 0x00,
  0xd6, 0x89, 0x4d, 0x3a, 0x12, 0x00, 0x00, 0x00, 0x6d, 0x6f, 0x64, 0x65,
  0x6c, 0x2f, 0x64, 0x65, 0x6e, 0x73, 0x65, 0x2f, 0x4d, 0x61, 0x74, 0x4d,
  0x75, 0x6c, 0x00, 0x00, 0x02, 0x00, 0x00, 0x00, 0x04, 0x00, 0x00, 0x00,
  0xec, 0x04, 0x00, 0x00, 0x82, 0xff, 0xff, 0xff, 0x00, 0x00, 0x00, 0x01,
  0x20, 0x00, 0x00, 0x00, 0x40, 0x00, 0x00, 0x00, 0x03, 0x00, 0x00, 0x00,
  0x00, 0x00, 0x00, 0x02, 0x5c, 0x00, 0x00, 0x00, 0x0c, 0x00, 0x0c, 0x00,
  0x00, 0x00, 0x00, 0x00, 0x08, 0x00, 0x04, 0x00, 0x0c, 0x00, 0x00, 0x00,
  0x08, 0x00, 0x00, 0x00, 0x14, 0x00, 0x00, 0x00, 0x01, 0x00, 0x00, 0x00,
  0x00, 0x00, 0x00, 0x00, 0x00, 0x00, 0x00, 0x00, 0x00, 0x00, 0x00, 0x00,
  0x01, 0x00, 0x00, 0x00, 0x3d, 0x22, 0xaa, 0x39, 0x22, 0x00, 0x00, 0x00,
  0x6d, 0x6f, 0x64, 0x65, 0x6c, 0x2f, 0x64, 0x65, 0x6e, 0x73, 0x65, 0x2f,
  0x42, 0x69, 0x61, 0x73, 0x41, 0x64, 0x64, 0x2f, 0x52, 0x65, 0x61, 0x64,
  0x56, 0x61, 0x72, 0x69, 0x61, 0x62, 0x6c, 0x65, 0x4f, 0x70, 0x00, 0x00,
  0x01, 0x00, 0x00, 0x00, 0x04, 0x00, 0x00, 0x00, 0x00, 0x00, 0x16, 0x00,
  0x1c, 0x00, 0x18, 0x00, 0x17, 0x00, 0x10, 0x00, 0x0c, 0x00, 0x08, 0x00,
  0x00, 0x00, 0x00, 0x00, 0x00, 0x00, 0x07, 0x00, 0x16, 0x00, 0x00, 0x00,
  0x00, 0x00, 0x00, 0x01, 0x14, 0x00, 0x00, 0x00, 0x14, 0x00, 0x00, 0x00,
  0x02, 0x00, 0x00, 0x00, 0x00, 0x00, 0x00, 0x02, 0x20, 0x00, 0x00, 0x00,
  0x94, 0xff, 0xff, 0xff, 0x13, 0x00, 0x00, 0x00, 0x6d, 0x6f, 0x64, 0x65,
  0x6c, 0x2f, 0x66, 0x6c, 0x61, 0x74, 0x74, 0x65, 0x6e, 0x2f, 0x43, 0x6f,
  0x6e, 0x73, 0x74, 0x00, 0x01, 0x00, 0x00, 0x00, 0x02, 0x00, 0x00, 0x00,
  0x00, 0x00, 0x16, 0x00, 0x1c, 0x00, 0x18, 0x00, 0x00, 0x00, 0x14, 0x00,
  0x10, 0x00, 0x0c, 0x00, 0x00, 0x00, 0x00, 0x00, 0x08, 0x00, 0x07, 0x00,
  0x16, 0x00, 0x00, 0x00, 0x00, 0x00, 0x00, 0x01, 0x14, 0x00, 0x00, 0x00,
  0x28, 0x00, 0x00, 0x00, 0x28, 0x00, 0x00, 0x00, 0x01, 0x00, 0x00, 0x00,
  0x40, 0x00, 0x00, 0x00, 0x04, 0x00, 0x00, 0x00, 0xff, 0xff, 0xff, 0xff,
  0x7e, 0x00, 0x00, 0x00, 0x41, 0x00, 0x00, 0x00, 0x01, 0x00, 0x00, 0x00,
  0x04, 0x00, 0x04, 0x00, 0x04, 0x00, 0x00, 0x00, 0x19, 0x00, 0x00, 0x00,
  0x73, 0x65, 0x72, 0x76, 0x69, 0x6e, 0x67, 0x5f, 0x64, 0x65, 0x66, 0x61,
  0x75, 0x6c, 0x74, 0x5f, 0x69, 0x6e, 0x70, 0x75, 0x74, 0x5f, 0x31, 0x3a,
  0x30, 0x00, 0x00, 0x00, 0x04, 0x00, 0x00, 0x00, 0x01, 0x00, 0x00, 0x00,
  0x7e, 0x00, 0x00, 0x00, 0x41, 0x00, 0x00, 0x00, 0x01, 0x00, 0x00, 0x00,
  0x07, 0x00, 0x00, 0x00, 0x90, 0x00, 0x00, 0x00, 0x70, 0x00, 0x00, 0x00,
  0x50, 0x00, 0x00, 0x00, 0x40, 0x00, 0x00, 0x00, 0x2c, 0x00, 0x00, 0x00,
  0x18, 0x00, 0x00, 0x00, 0x04, 0x00, 0x00, 0x00, 0xb4, 0xff, 0xff, 0xff,
  0x06, 0x00, 0x00, 0x00, 0x02, 0x00, 0x00, 0x00, 0x00, 0x00, 0x00, 0x06,
  0xc4, 0xff, 0xff, 0xff, 0x19, 0x00, 0x00, 0x00, 0x02, 0x00, 0x00, 0x00,
  0x00, 0x00, 0x00, 0x19, 0xd4, 0xff, 0xff, 0xff, 0x09, 0x00, 0x00, 0x00,
  0x04, 0x00, 0x00, 0x00, 0x00, 0x00, 0x00, 0x09, 0xc8, 0xff, 0xff, 0xff,
  0x16, 0x00, 0x00, 0x00, 0x00, 0x00, 0x00, 0x16, 0xf0, 0xff, 0xff, 0xff,
  0x11, 0x00, 0x00, 0x00, 0x02, 0x00, 0x00, 0x00, 0x00, 0x00, 0x00, 0x11,
  0x0c, 0x00, 0x10, 0x00, 0x0f, 0x00, 0x00, 0x00, 0x08, 0x00, 0x04, 0x00,
  0x0c, 0x00, 0x00, 0x00, 0x03, 0x00, 0x00, 0x00, 0x03, 0x00, 0x00, 0x00,
  0x00, 0x00, 0x00, 0x03, 0x0c, 0x00, 0x0c, 0x00, 0x0b, 0x00, 0x00, 0x00,
  0x00, 0x00, 0x04, 0x00, 0x0c, 0x00, 0x00, 0x00, 0x72, 0x00, 0x00, 0x00,
  0x00, 0x00, 0x00, 0x72
};